{
 "kind": "bpe",
 "vocab_size": 1024,
 "start_token": "<|start|>",
 "start_id": 1023,
 "fitted_on": {
  "split_sha256": "7095c396779d438d23fb4c3220719a33d3fc1b575f5b8404c6b5306c17a8c03c",
  "set": "train",
  "works": 39,
  "chars": 4811336,
  "text_sha256": "a554df7850d2095fc42a95aa510b5cdfd6bb987a8da6583dee86ca997dcf367e",
  "note": "alphabet and merges computed from the 39 training works only; validation and test works were only checked for characters outside that alphabet, and encoded"
 },
 "chars": [
  "\n",
  " ",
  "!",
  "&",
  "(",
  ")",
  ",",
  "-",
  ".",
  "0",
  "1",
  "2",
  "3",
  "4",
  "5",
  "6",
  "7",
  "8",
  "9",
  ":",
  ";",
  "?",
  "A",
  "B",
  "C",
  "D",
  "E",
  "F",
  "G",
  "H",
  "I",
  "J",
  "K",
  "L",
  "M",
  "N",
  "O",
  "P",
  "Q",
  "R",
  "S",
  "T",
  "U",
  "V",
  "W",
  "X",
  "Y",
  "Z",
  "[",
  "]",
  "_",
  "a",
  "b",
  "c",
  "d",
  "e",
  "f",
  "g",
  "h",
  "i",
  "j",
  "k",
  "l",
  "m",
  "n",
  "o",
  "p",
  "q",
  "r",
  "s",
  "t",
  "u",
  "v",
  "w",
  "x",
  "y",
  "z",
  "À",
  "Æ",
  "Ç",
  "É",
  "à",
  "â",
  "æ",
  "ç",
  "è",
  "é",
  "ê",
  "ë",
  "î",
  "œ",
  "—",
  "‘",
  "’",
  "“",
  "”",
  "…"
 ],
 "merges": [
  [
   " ",
   "t"
  ],
  [
   "h",
   "e"
  ],
  [
   " ",
   "a"
  ],
  [
   "o",
   "u"
  ],
  [
   " ",
   "s"
  ],
  [
   "i",
   "n"
  ],
  [
   " ",
   "m"
  ],
  [
   " ",
   "w"
  ],
  [
   "r",
   "e"
  ],
  [
   "h",
   "a"
  ],
  [
   "n",
   "d"
  ],
  [
   "\n",
   "\n"
  ],
  [
   " t",
   "he"
  ],
  [
   " ",
   "b"
  ],
  [
   "i",
   "s"
  ],
  [
   "e",
   "r"
  ],
  [
   "o",
   "r"
  ],
  [
   "l",
   "l"
  ],
  [
   " ",
   "f"
  ],
  [
   "o",
   "n"
  ],
  [
   "i",
   "t"
  ],
  [
   "e",
   "s"
  ],
  [
   " ",
   "d"
  ],
  [
   " ",
   "c"
  ],
  [
   " ",
   "l"
  ],
  [
   " ",
   "o"
  ],
  [
   "e",
   "n"
  ],
  [
   " ",
   "n"
  ],
  [
   " ",
   "y"
  ],
  [
   "a",
   "r"
  ],
  [
   " t",
   "h"
  ],
  [
   " ",
   "h"
  ],
  [
   " ",
   "p"
  ],
  [
   " y",
   "ou"
  ],
  [
   " t",
   "o"
  ],
  [
   " a",
   "nd"
  ],
  [
   " ",
   "I"
  ],
  [
   "ha",
   "t"
  ],
  [
   " o",
   "f"
  ],
  [
   " ",
   "he"
  ],
  [
   "a",
   "n"
  ],
  [
   "o",
   "t"
  ],
  [
   "v",
   "e"
  ],
  [
   "s",
   "t"
  ],
  [
   "in",
   "g"
  ],
  [
   "o",
   "w"
  ],
  [
   "o",
   "m"
  ],
  [
   " ",
   "g"
  ],
  [
   "a",
   "t"
  ],
  [
   "e",
   "d"
  ],
  [
   " ",
   "in"
  ],
  [
   " b",
   "e"
  ],
  [
   "s",
   "e"
  ],
  [
   "c",
   "e"
  ],
  [
   "e",
   "t"
  ],
  [
   " ",
   "ha"
  ],
  [
   " m",
   "y"
  ],
  [
   "l",
   "d"
  ],
  [
   "a",
   "y"
  ],
  [
   "l",
   "e"
  ],
  [
   "u",
   "t"
  ],
  [
   "i",
   "r"
  ],
  [
   "i",
   "m"
  ],
  [
   "it",
   "h"
  ],
  [
   " m",
   "e"
  ],
  [
   "c",
   "h"
  ],
  [
   "g",
   "h"
  ],
  [
   " n",
   "ot"
  ],
  [
   "i",
   "ll"
  ],
  [
   " ",
   "is"
  ],
  [
   " ",
   " "
  ],
  [
   " ",
   "e"
  ],
  [
   " t",
   "hat"
  ],
  [
   "k",
   "e"
  ],
  [
   "A",
   "nd"
  ],
  [
   "o",
   "o"
  ],
  [
   "ou",
   "r"
  ],
  [
   " f",
   "or"
  ],
  [
   "’",
   "s"
  ],
  [
   "u",
   "s"
  ],
  [
   " w",
   "ith"
  ],
  [
   " w",
   "e"
  ],
  [
   "T",
   "he"
  ],
  [
   "t",
   "er"
  ],
  [
   "a",
   "s"
  ],
  [
   "a",
   "d"
  ],
  [
   " ",
   "it"
  ],
  [
   "r",
   "i"
  ],
  [
   "a",
   "l"
  ],
  [
   "en",
   "t"
  ],
  [
   " h",
   "is"
  ],
  [
   " you",
   "r"
  ],
  [
   "he",
   "r"
  ],
  [
   " s",
   "t"
  ],
  [
   "i",
   "d"
  ],
  [
   "r",
   "a"
  ],
  [
   "u",
   "n"
  ],
  [
   " th",
   "ou"
  ],
  [
   "gh",
   "t"
  ],
  [
   " h",
   "im"
  ],
  [
   "or",
   "d"
  ],
  [
   "l",
   "y"
  ],
  [
   " ",
   "re"
  ],
  [
   " ha",
   "ve"
  ],
  [
   " ",
   "on"
  ],
  [
   " l",
   "i"
  ],
  [
   "om",
   "e"
  ],
  [
   " th",
   "is"
  ],
  [
   " s",
   "o"
  ],
  [
   " ",
   "k"
  ],
  [
   "u",
   "r"
  ],
  [
   " a",
   "s"
  ],
  [
   "v",
   "er"
  ],
  [
   "o",
   "re"
  ],
  [
   "ou",
   "ld"
  ],
  [
   "a",
   "in"
  ],
  [
   "r",
   "o"
  ],
  [
   " d",
   "e"
  ],
  [
   "E",
   "N"
  ],
  [
   " d",
   "o"
  ],
  [
   "c",
   "k"
  ],
  [
   "h",
   "i"
  ],
  [
   " w",
   "ill"
  ],
  [
   "oo",
   "d"
  ],
  [
   "a",
   "m"
  ],
  [
   "U",
   "S"
  ],
  [
   " s",
   "ha"
  ],
  [
   "es",
   "s"
  ],
  [
   "’",
   "d"
  ],
  [
   " s",
   "e"
  ],
  [
   " he",
   "r"
  ],
  [
   "i",
   "on"
  ],
  [
   "A",
   "N"
  ],
  [
   " ",
   "S"
  ],
  [
   " ",
   "C"
  ],
  [
   "es",
   "t"
  ],
  [
   "g",
   "e"
  ],
  [
   "e",
   "a"
  ],
  [
   "[",
   "_"
  ],
  [
   "a",
   "nd"
  ],
  [
   "E",
   "R"
  ],
  [
   " l",
   "o"
  ],
  [
   "A",
   "R"
  ],
  [
   " th",
   "y"
  ],
  [
   "t",
   "h"
  ],
  [
   " n",
   "o"
  ],
  [
   " ",
   "H"
  ],
  [
   "T",
   "h"
  ],
  [
   "I",
   "N"
  ],
  [
   " a",
   "n"
  ],
  [
   " a",
   "ll"
  ],
  [
   "i",
   "l"
  ],
  [
   "T",
   "o"
  ],
  [
   " b",
   "ut"
  ],
  [
   " ",
   "A"
  ],
  [
   "a",
   "ke"
  ],
  [
   " ",
   "u"
  ],
  [
   ".",
   "_"
  ],
  [
   " s",
   "u"
  ],
  [
   "i",
   "f"
  ],
  [
   "e",
   "ll"
  ],
  [
   " f",
   "a"
  ],
  [
   "c",
   "t"
  ],
  [
   " s",
   "p"
  ],
  [
   " ",
   "M"
  ],
  [
   "e",
   "ar"
  ],
  [
   "i",
   "ght"
  ],
  [
   " ",
   "P"
  ],
  [
   "E",
   "S"
  ],
  [
   "._",
   "]"
  ],
  [
   " k",
   "n"
  ],
  [
   "ha",
   "n"
  ],
  [
   "h",
   "o"
  ],
  [
   " a",
   "re"
  ],
  [
   " ",
   "B"
  ],
  [
   " sha",
   "ll"
  ],
  [
   "u",
   "e"
  ],
  [
   " ",
   "v"
  ],
  [
   " ",
   "W"
  ],
  [
   " the",
   "e"
  ],
  [
   "T",
   "hat"
  ],
  [
   "a",
   "st"
  ],
  [
   "r",
   "om"
  ],
  [
   "ar",
   "d"
  ],
  [
   "ar",
   "t"
  ],
  [
   " ",
   "L"
  ],
  [
   " b",
   "y"
  ],
  [
   " s",
   "h"
  ],
  [
   "O",
   "N"
  ],
  [
   " ",
   "our"
  ],
  [
   " ",
   "G"
  ],
  [
   "an",
   "t"
  ],
  [
   " n",
   "e"
  ],
  [
   "e",
   "nd"
  ],
  [
   " m",
   "an"
  ],
  [
   "u",
   "st"
  ],
  [
   "E",
   "n"
  ],
  [
   "in",
   "e"
  ],
  [
   " a",
   "t"
  ],
  [
   "ou",
   "s"
  ],
  [
   "re",
   "s"
  ],
  [
   "  ",
   "  "
  ],
  [
   "O",
   "R"
  ],
  [
   " a",
   "m"
  ],
  [
   " c",
   "om"
  ],
  [
   " u",
   "p"
  ],
  [
   "se",
   "l"
  ],
  [
   "on",
   "e"
  ],
  [
   " l",
   "ord"
  ],
  [
   "ou",
   "t"
  ],
  [
   "S",
   "T"
  ],
  [
   "in",
   "d"
  ],
  [
   "i",
   "e"
  ],
  [
   " g",
   "o"
  ],
  [
   "e",
   "m"
  ],
  [
   "’",
   "ll"
  ],
  [
   "he",
   "n"
  ],
  [
   "i",
   "ve"
  ],
  [
   " g",
   "ood"
  ],
  [
   "er",
   "s"
  ],
  [
   " s",
   "he"
  ],
  [
   "on",
   "g"
  ],
  [
   "i",
   "c"
  ],
  [
   "r",
   "y"
  ],
  [
   " c",
   "on"
  ],
  [
   "hi",
   "ch"
  ],
  [
   " f",
   "rom"
  ],
  [
   "u",
   "m"
  ],
  [
   "ot",
   "h"
  ],
  [
   " lo",
   "ve"
  ],
  [
   " ",
   "F"
  ],
  [
   " w",
   "hat"
  ],
  [
   "u",
   "l"
  ],
  [
   "v",
   "en"
  ],
  [
   "r",
   "ow"
  ],
  [
   "q",
   "u"
  ],
  [
   "’",
   "t"
  ],
  [
   "b",
   "le"
  ],
  [
   "E",
   "x"
  ],
  [
   " the",
   "m"
  ],
  [
   "A",
   "L"
  ],
  [
   "En",
   "ter"
  ],
  [
   " ",
   "r"
  ],
  [
   " b",
   "l"
  ],
  [
   " s",
   "w"
  ],
  [
   " kn",
   "ow"
  ],
  [
   " w",
   "ould"
  ],
  [
   " w",
   "as"
  ],
  [
   " t",
   "r"
  ],
  [
   "o",
   "l"
  ],
  [
   " m",
   "ore"
  ],
  [
   "O",
   "L"
  ],
  [
   "p",
   "p"
  ],
  [
   "B",
   "ut"
  ],
  [
   " ",
   "un"
  ],
  [
   " ",
   "O"
  ],
  [
   " the",
   "ir"
  ],
  [
   "he",
   "re"
  ],
  [
   " ",
   "D"
  ],
  [
   " p",
   "r"
  ],
  [
   "f",
   "e"
  ],
  [
   "o",
   "st"
  ],
  [
   " c",
   "a"
  ],
  [
   "e",
   "p"
  ],
  [
   "u",
   "re"
  ],
  [
   " n",
   "ow"
  ],
  [
   " c",
   "an"
  ],
  [
   "re",
   "at"
  ],
  [
   " the",
   "y"
  ],
  [
   " the",
   "re"
  ],
  [
   " ",
   "hat"
  ],
  [
   " w",
   "or"
  ],
  [
   "e",
   "l"
  ],
  [
   " t",
   "han"
  ],
  [
   " ",
   "or"
  ],
  [
   "sel",
   "f"
  ],
  [
   " ",
   "T"
  ],
  [
   " a",
   "r"
  ],
  [
   " ",
   "us"
  ],
  [
   "W",
   "hat"
  ],
  [
   "H",
   "e"
  ],
  [
   "at",
   "e"
  ],
  [
   "or",
   "t"
  ],
  [
   "l",
   "a"
  ],
  [
   "n",
   "t"
  ],
  [
   "T",
   "H"
  ],
  [
   "in",
   "k"
  ],
  [
   " s",
   "ir"
  ],
  [
   " ",
   "R"
  ],
  [
   "L",
   "E"
  ],
  [
   "A",
   "s"
  ],
  [
   "I",
   "O"
  ],
  [
   " ",
   "if"
  ],
  [
   "Y",
   "ou"
  ],
  [
   " l",
   "et"
  ],
  [
   " s",
   "ay"
  ],
  [
   "C",
   "H"
  ],
  [
   "v",
   "es"
  ],
  [
   "h",
   "y"
  ],
  [
   "am",
   "e"
  ],
  [
   " he",
   "re"
  ],
  [
   "F",
   "or"
  ],
  [
   " ",
   "The"
  ],
  [
   "at",
   "h"
  ],
  [
   " li",
   "ke"
  ],
  [
   "oo",
   "k"
  ],
  [
   "a",
   "k"
  ],
  [
   "ot",
   "her"
  ],
  [
   "o",
   "d"
  ],
  [
   " se",
   "e"
  ],
  [
   "is",
   "h"
  ],
  [
   "E",
   "L"
  ],
  [
   " the",
   "n"
  ],
  [
   "i",
   "g"
  ],
  [
   " on",
   "e"
  ],
  [
   "at",
   "her"
  ],
  [
   "ou",
   "nd"
  ],
  [
   "I",
   "A"
  ],
  [
   " we",
   "ll"
  ],
  [
   "f",
   "ore"
  ],
  [
   " ",
   "j"
  ],
  [
   " ",
   "K"
  ],
  [
   " hat",
   "h"
  ],
  [
   "IN",
   "G"
  ],
  [
   " sh",
   "ould"
  ],
  [
   " m",
   "ay"
  ],
  [
   " c",
   "ome"
  ],
  [
   " d",
   "id"
  ],
  [
   " b",
   "r"
  ],
  [
   " ",
   "en"
  ],
  [
   "re",
   "d"
  ],
  [
   "is",
   "t"
  ],
  [
   "I",
   "US"
  ],
  [
   " s",
   "a"
  ],
  [
   " m",
   "ake"
  ],
  [
   "i",
   "ce"
  ],
  [
   "g",
   "ain"
  ],
  [
   "M",
   "y"
  ],
  [
   " m",
   "ad"
  ],
  [
   "an",
   "ce"
  ],
  [
   " m",
   "ust"
  ],
  [
   " ",
   "out"
  ],
  [
   " up",
   "on"
  ],
  [
   " h",
   "o"
  ],
  [
   "ver",
   "y"
  ],
  [
   "ea",
   "k"
  ],
  [
   "un",
   "t"
  ],
  [
   "p",
   "e"
  ],
  [
   " w",
   "hich"
  ],
  [
   "R",
   "O"
  ],
  [
   " we",
   "re"
  ],
  [
   "it",
   "y"
  ],
  [
   "im",
   "e"
  ],
  [
   " ha",
   "d"
  ],
  [
   "i",
   "es"
  ],
  [
   "L",
   "O"
  ],
  [
   "I",
   "R"
  ],
  [
   " to",
   "o"
  ],
  [
   " ",
   "E"
  ],
  [
   "  ",
   " "
  ],
  [
   "f",
   "f"
  ],
  [
   " p",
   "ro"
  ],
  [
   "en",
   "ce"
  ],
  [
   " he",
   "art"
  ],
  [
   "t",
   "o"
  ],
  [
   "K",
   "ING"
  ],
  [
   "p",
   "t"
  ],
  [
   "or",
   "n"
  ],
  [
   " w",
   "hen"
  ],
  [
   " su",
   "ch"
  ],
  [
   " ",
   "’t"
  ],
  [
   "u",
   "ch"
  ],
  [
   " h",
   "on"
  ],
  [
   " e",
   "y"
  ],
  [
   "a",
   "re"
  ],
  [
   " p",
   "o"
  ],
  [
   "as",
   "s"
  ],
  [
   "a",
   "ll"
  ],
  [
   " ha",
   "nd"
  ],
  [
   "a",
   "u"
  ],
  [
   "I",
   "f"
  ],
  [
   "Th",
   "ou"
  ],
  [
   " e",
   "x"
  ],
  [
   "i",
   "ck"
  ],
  [
   " d",
   "is"
  ],
  [
   "t",
   "her"
  ],
  [
   "n",
   "ess"
  ],
  [
   "o",
   "nd"
  ],
  [
   "Th",
   "is"
  ],
  [
   " ",
   "N"
  ],
  [
   " a",
   "l"
  ],
  [
   "is",
   "e"
  ],
  [
   " y",
   "et"
  ],
  [
   "id",
   "e"
  ],
  [
   " a",
   "gain"
  ],
  [
   "i",
   "re"
  ],
  [
   " w",
   "ho"
  ],
  [
   "W",
   "ith"
  ],
  [
   " sp",
   "eak"
  ],
  [
   " of",
   "f"
  ],
  [
   " ",
   "qu"
  ],
  [
   " K",
   "ing"
  ],
  [
   " I",
   "’ll"
  ],
  [
   "i",
   "o"
  ],
  [
   "w",
   "n"
  ],
  [
   "a",
   "ge"
  ],
  [
   "ur",
   "n"
  ],
  [
   "e",
   "et"
  ],
  [
   "AN",
   "T"
  ],
  [
   " s",
   "ome"
  ],
  [
   "I",
   "C"
  ],
  [
   " f",
   "ri"
  ],
  [
   "u",
   "d"
  ],
  [
   "ing",
   "s"
  ],
  [
   "o",
   "se"
  ],
  [
   "I",
   "n"
  ],
  [
   " th",
   "ink"
  ],
  [
   "AR",
   "D"
  ],
  [
   "o",
   "y"
  ],
  [
   "i",
   "us"
  ],
  [
   " ",
   "J"
  ],
  [
   "ow",
   "n"
  ],
  [
   "’",
   "st"
  ],
  [
   " f",
   "o"
  ],
  [
   " p",
   "l"
  ],
  [
   " the",
   "se"
  ],
  [
   " a",
   "b"
  ],
  [
   "res",
   "s"
  ],
  [
   " m",
   "ine"
  ],
  [
   "ad",
   "y"
  ],
  [
   "A",
   "M"
  ],
  [
   " f",
   "ather"
  ],
  [
   "I",
   "L"
  ],
  [
   " f",
   "l"
  ],
  [
   "e",
   "unt"
  ],
  [
   " h",
   "ow"
  ],
  [
   " g",
   "reat"
  ],
  [
   "Ex",
   "eunt"
  ],
  [
   " t",
   "ime"
  ],
  [
   " t",
   "w"
  ],
  [
   " he",
   "a"
  ],
  [
   " fri",
   "end"
  ],
  [
   " ",
   "ro"
  ],
  [
   "A",
   "T"
  ],
  [
   " c",
   "ha"
  ],
  [
   "W",
   "hy"
  ],
  [
   "e",
   "f"
  ],
  [
   "ES",
   "S"
  ],
  [
   "in",
   "ce"
  ],
  [
   "ent",
   "le"
  ],
  [
   "ast",
   "er"
  ],
  [
   "w",
   "ay"
  ],
  [
   "EN",
   "E"
  ],
  [
   " g",
   "ive"
  ],
  [
   "U",
   "C"
  ],
  [
   "H",
   "ow"
  ],
  [
   " g",
   "ra"
  ],
  [
   "a",
   "ve"
  ],
  [
   " t",
   "ake"
  ],
  [
   "at",
   "ion"
  ],
  [
   " w",
   "here"
  ],
  [
   " m",
   "uch"
  ],
  [
   " d",
   "es"
  ],
  [
   "Ex",
   "it"
  ],
  [
   "n",
   "g"
  ],
  [
   "N",
   "o"
  ],
  [
   "re",
   "e"
  ],
  [
   " ne",
   "ver"
  ],
  [
   "S",
   "o"
  ],
  [
   "W",
   "e"
  ],
  [
   " t",
   "ell"
  ],
  [
   " be",
   "t"
  ],
  [
   " m",
   "ost"
  ],
  [
   " ",
   "ri"
  ],
  [
   "u",
   "ll"
  ],
  [
   "ou",
   "gh"
  ],
  [
   "B",
   "e"
  ],
  [
   "O",
   "f"
  ],
  [
   "a",
   "ck"
  ],
  [
   " th",
   "’"
  ],
  [
   "o",
   "s"
  ],
  [
   " he",
   "ar"
  ],
  [
   " d",
   "ay"
  ],
  [
   " m",
   "en"
  ],
  [
   " l",
   "ea"
  ],
  [
   " l",
   "ook"
  ],
  [
   "ig",
   "n"
  ],
  [
   " m",
   "ar"
  ],
  [
   "it",
   "her"
  ],
  [
   "it",
   "e"
  ],
  [
   "b",
   "er"
  ],
  [
   " d",
   "oth"
  ],
  [
   "l",
   "i"
  ],
  [
   " p",
   "art"
  ],
  [
   " li",
   "fe"
  ],
  [
   "c",
   "es"
  ],
  [
   " o",
   "ther"
  ],
  [
   " w",
   "ord"
  ],
  [
   "f",
   "ul"
  ],
  [
   "n",
   "ot"
  ],
  [
   "ou",
   "l"
  ],
  [
   " H",
   "e"
  ],
  [
   "F",
   "F"
  ],
  [
   "W",
   "hich"
  ],
  [
   " bl",
   "ood"
  ],
  [
   " ar",
   "t"
  ],
  [
   " hon",
   "our"
  ],
  [
   "a",
   "g"
  ],
  [
   "c",
   "i"
  ],
  [
   " e",
   "ar"
  ],
  [
   "W",
   "ho"
  ],
  [
   " fa",
   "ir"
  ],
  [
   " de",
   "ath"
  ],
  [
   " w",
   "r"
  ],
  [
   "’",
   "T"
  ],
  [
   "S",
   "C"
  ],
  [
   "w",
   "ard"
  ],
  [
   "c",
   "he"
  ],
  [
   "p",
   "er"
  ],
  [
   "d",
   "e"
  ],
  [
   "er",
   "v"
  ],
  [
   "an",
   "s"
  ],
  [
   " f",
   "ear"
  ],
  [
   "i",
   "gh"
  ],
  [
   "o",
   "ld"
  ],
  [
   " g",
   "entle"
  ],
  [
   "oo",
   "l"
  ],
  [
   " p",
   "le"
  ],
  [
   "ou",
   "nt"
  ],
  [
   "E",
   "T"
  ],
  [
   "L",
   "A"
  ],
  [
   " com",
   "m"
  ],
  [
   "it",
   "t"
  ],
  [
   "I",
   "t"
  ],
  [
   " sw",
   "eet"
  ],
  [
   " an",
   "y"
  ],
  [
   "o",
   "ve"
  ],
  [
   " s",
   "on"
  ],
  [
   "    ",
   "    "
  ],
  [
   " s",
   "c"
  ],
  [
   " o",
   "wn"
  ],
  [
   " ",
   "ra"
  ],
  [
   "m",
   "ent"
  ],
  [
   " p",
   "er"
  ],
  [
   "e",
   "e"
  ],
  [
   "h",
   "ing"
  ],
  [
   "i",
   "a"
  ],
  [
   " st",
   "r"
  ],
  [
   " ca",
   "ll"
  ],
  [
   "’",
   "er"
  ],
  [
   " a",
   "d"
  ],
  [
   "nd",
   "er"
  ],
  [
   " w",
   "ar"
  ],
  [
   "ll",
   "ow"
  ],
  [
   " mad",
   "e"
  ],
  [
   "b",
   "l"
  ],
  [
   "SC",
   "ENE"
  ],
  [
   " tr",
   "ue"
  ],
  [
   " ",
   "“"
  ],
  [
   "l",
   "and"
  ],
  [
   " n",
   "ight"
  ],
  [
   "a",
   "se"
  ],
  [
   " hea",
   "ven"
  ],
  [
   " w",
   "h"
  ],
  [
   "I",
   "T"
  ],
  [
   "row",
   "n"
  ],
  [
   "re",
   "n"
  ],
  [
   "m",
   "an"
  ],
  [
   " ey",
   "es"
  ],
  [
   "u",
   "ke"
  ],
  [
   "C",
   "A"
  ],
  [
   " ’t",
   "is"
  ],
  [
   " ",
   "And"
  ],
  [
   "Q",
   "U"
  ],
  [
   "I",
   "s"
  ],
  [
   "D",
   "U"
  ],
  [
   "B",
   "y"
  ],
  [
   ".",
   "]"
  ],
  [
   "W",
   "hen"
  ],
  [
   " L",
   "ord"
  ],
  [
   " ",
   "very"
  ],
  [
   "ct",
   "ion"
  ],
  [
   " a",
   "pp"
  ],
  [
   "W",
   "here"
  ],
  [
   " ",
   "ke"
  ],
  [
   "o",
   "ck"
  ],
  [
   "or",
   "row"
  ],
  [
   " can",
   "not"
  ],
  [
   "AN",
   "D"
  ],
  [
   " wor",
   "ld"
  ],
  [
   " l",
   "a"
  ],
  [
   " be",
   "en"
  ],
  [
   " B",
   "ut"
  ],
  [
   "’T",
   "is"
  ],
  [
   " p",
   "re"
  ],
  [
   "Y",
   "our"
  ],
  [
   "P",
   "H"
  ],
  [
   "E",
   "M"
  ],
  [
   " W",
   "hat"
  ],
  [
   " ",
   "V"
  ],
  [
   " pr",
   "ay"
  ],
  [
   "A",
   "C"
  ],
  [
   " be",
   "ar"
  ],
  [
   "t",
   "y"
  ],
  [
   " ha",
   "st"
  ],
  [
   "p",
   "s"
  ],
  [
   "L",
   "et"
  ],
  [
   "The",
   "re"
  ],
  [
   " a",
   "f"
  ],
  [
   "w",
   "e"
  ],
  [
   "s",
   "s"
  ],
  [
   " ",
   "im"
  ],
  [
   "c",
   "c"
  ],
  [
   "EN",
   "T"
  ],
  [
   " c",
   "l"
  ],
  [
   " w",
   "it"
  ],
  [
   " w",
   "ay"
  ],
  [
   " a",
   "way"
  ],
  [
   " n",
   "or"
  ],
  [
   " d",
   "one"
  ],
  [
   "\n\n",
   "\n"
  ],
  [
   "ou",
   "se"
  ],
  [
   "u",
   "se"
  ],
  [
   "au",
   "gh"
  ],
  [
   " k",
   "ing"
  ],
  [
   "om",
   "an"
  ],
  [
   " c",
   "our"
  ],
  [
   " b",
   "re"
  ],
  [
   "O",
   "r"
  ],
  [
   "v",
   "ing"
  ],
  [
   " l",
   "e"
  ],
  [
   " com",
   "p"
  ],
  [
   "IR",
   "ST"
  ],
  [
   " tw",
   "o"
  ],
  [
   "u",
   "ck"
  ],
  [
   "F",
   "IRST"
  ],
  [
   " he",
   "ad"
  ],
  [
   "a",
   "ble"
  ],
  [
   "is",
   "s"
  ],
  [
   "E",
   "D"
  ],
  [
   " br",
   "other"
  ],
  [
   " ar",
   "m"
  ],
  [
   "_",
   ".]"
  ],
  [
   " st",
   "and"
  ],
  [
   " n",
   "ame"
  ],
  [
   " d",
   "own"
  ],
  [
   " m",
   "ight"
  ],
  [
   " G",
   "od"
  ],
  [
   "l",
   "ess"
  ],
  [
   "i",
   "an"
  ],
  [
   " th",
   "us"
  ],
  [
   " C",
   "a"
  ],
  [
   " no",
   "ble"
  ],
  [
   " e",
   "ver"
  ],
  [
   "C",
   "ome"
  ],
  [
   " thou",
   "ght"
  ],
  [
   " p",
   "res"
  ],
  [
   " D",
   "uke"
  ],
  [
   "ear",
   "s"
  ],
  [
   "ue",
   "en"
  ],
  [
   "g",
   "er"
  ],
  [
   "A",
   "y"
  ],
  [
   "R",
   "I"
  ],
  [
   "ow",
   "er"
  ],
  [
   "k",
   "s"
  ],
  [
   "S",
   "E"
  ],
  [
   " con",
   "t"
  ],
  [
   "I",
   "M"
  ],
  [
   "if",
   "e"
  ],
  [
   " p",
   "la"
  ],
  [
   " lea",
   "ve"
  ],
  [
   "l",
   "es"
  ],
  [
   "I",
   "’ll"
  ],
  [
   " o",
   "ld"
  ],
  [
   "ain",
   "t"
  ],
  [
   "U",
   "R"
  ],
  [
   "ST",
   "A"
  ],
  [
   "or",
   "s"
  ],
  [
   " l",
   "ong"
  ],
  [
   "as",
   "on"
  ],
  [
   "a",
   "ch"
  ],
  [
   " be",
   "fore"
  ],
  [
   "d",
   "s"
  ],
  [
   " be",
   "g"
  ],
  [
   " f",
   "ool"
  ],
  [
   "ir",
   "st"
  ],
  [
   " ha",
   "r"
  ],
  [
   " c",
   "ould"
  ],
  [
   "N",
   "ow"
  ],
  [
   "s",
   "w"
  ],
  [
   "b",
   "e"
  ],
  [
   "p",
   "le"
  ],
  [
   " sh",
   "ow"
  ],
  [
   " com",
   "es"
  ],
  [
   "et",
   "h"
  ],
  [
   " p",
   "ur"
  ],
  [
   "ar",
   "k"
  ],
  [
   "K",
   "E"
  ],
  [
   " g",
   "l"
  ],
  [
   "e",
   "w"
  ],
  [
   " s",
   "oul"
  ],
  [
   " po",
   "or"
  ],
  [
   " be",
   "ing"
  ],
  [
   " li",
   "ve"
  ],
  [
   " l",
   "ady"
  ],
  [
   " e",
   "nd"
  ],
  [
   " bet",
   "ter"
  ],
  [
   "c",
   "ome"
  ],
  [
   "at",
   "ter"
  ],
  [
   " ne",
   "w"
  ],
  [
   "ha",
   "r"
  ],
  [
   "S",
   "S"
  ],
  [
   " st",
   "ill"
  ],
  [
   "m",
   "e"
  ],
  [
   " de",
   "ad"
  ],
  [
   "OR",
   "D"
  ],
  [
   "ak",
   "es"
  ],
  [
   " re",
   "m"
  ],
  [
   "t",
   "he"
  ],
  [
   "R",
   "U"
  ],
  [
   "augh",
   "ter"
  ],
  [
   "i",
   "ous"
  ],
  [
   " e",
   "very"
  ],
  [
   " f",
   "ind"
  ],
  [
   "ou",
   "ght"
  ],
  [
   "The",
   "n"
  ],
  [
   " ke",
   "ep"
  ],
  [
   " b",
   "est"
  ],
  [
   "CH",
   "ARD"
  ],
  [
   "ist",
   "ress"
  ],
  [
   "C",
   "E"
  ],
  [
   " re",
   "p"
  ],
  [
   " P",
   "r"
  ],
  [
   "t",
   "end"
  ],
  [
   "c",
   "y"
  ],
  [
   " b",
   "oth"
  ],
  [
   "C",
   "ON"
  ],
  [
   " man",
   "y"
  ],
  [
   "H",
   "AM"
  ],
  [
   " in",
   "to"
  ],
  [
   "t",
   "s"
  ],
  [
   " m",
   "er"
  ],
  [
   "n",
   "e"
  ],
  [
   "ha",
   "ll"
  ],
  [
   "IN",
   "E"
  ],
  [
   "i",
   "ed"
  ],
  [
   "ea",
   "ce"
  ],
  [
   " s",
   "m"
  ],
  [
   " not",
   "hing"
  ],
  [
   "f",
   "or"
  ],
  [
   "He",
   "re"
  ],
  [
   "i",
   "er"
  ],
  [
   " I",
   "f"
  ],
  [
   "m",
   "en"
  ],
  [
   "un",
   "e"
  ],
  [
   " p",
   "ri"
  ],
  [
   " friend",
   "s"
  ],
  [
   "The",
   "y"
  ],
  [
   "S",
   "he"
  ],
  [
   " m",
   "a"
  ],
  [
   " h",
   "ouse"
  ],
  [
   "itt",
   "le"
  ],
  [
   "S",
   "t"
  ],
  [
   "R",
   "Y"
  ],
  [
   " f",
   "ell"
  ],
  [
   "es",
   "ar"
  ],
  [
   " m",
   "aster"
  ],
  [
   " b",
   "ra"
  ],
  [
   "STA",
   "FF"
  ],
  [
   "B",
   "E"
  ],
  [
   "E",
   "EN"
  ],
  [
   "w",
   "ell"
  ],
  [
   " my",
   "self"
  ],
  [
   " O",
   "F"
  ],
  [
   "AL",
   "STAFF"
  ],
  [
   "hi",
   "p"
  ],
  [
   "H",
   "is"
  ],
  [
   "ar",
   "ry"
  ],
  [
   "F",
   "ALSTAFF"
  ],
  [
   " s",
   "erv"
  ],
  [
   "I",
   "S"
  ],
  [
   " t",
   "ong"
  ],
  [
   "on",
   "s"
  ],
  [
   "er",
   "t"
  ],
  [
   " p",
   "ut"
  ],
  [
   "QU",
   "EEN"
  ],
  [
   "r",
   "ant"
  ],
  [
   " fo",
   "llow"
  ],
  [
   " A",
   "nt"
  ],
  [
   " l",
   "ittle"
  ],
  [
   "T",
   "han"
  ],
  [
   " s",
   "et"
  ],
  [
   " ey",
   "e"
  ],
  [
   " ",
   "’"
  ],
  [
   "ie",
   "ld"
  ],
  [
   " d",
   "aughter"
  ],
  [
   " ",
   "Y"
  ],
  [
   " p",
   "a"
  ],
  [
   " th",
   "ose"
  ],
  [
   "in",
   "s"
  ],
  [
   "W",
   "ell"
  ],
  [
   "at",
   "ch"
  ],
  [
   " w",
   "ife"
  ],
  [
   " ho",
   "ld"
  ],
  [
   " ",
   "En"
  ],
  [
   "v",
   "il"
  ],
  [
   "l",
   "f"
  ],
  [
   "DU",
   "KE"
  ],
  [
   "T",
   "ER"
  ],
  [
   " c",
   "o"
  ],
  [
   "it",
   "s"
  ],
  [
   "CON",
   "D"
  ],
  [
   " t",
   "ra"
  ],
  [
   " d",
   "ie"
  ],
  [
   " e",
   "m"
  ],
  [
   "ut",
   "y"
  ],
  [
   "ou",
   "n"
  ],
  [
   " h",
   "our"
  ],
  [
   " g",
   "u"
  ],
  [
   " f",
   "irst"
  ],
  [
   "IC",
   "K"
  ],
  [
   "SE",
   "COND"
  ],
  [
   " you",
   "ng"
  ],
  [
   "al",
   "k"
  ],
  [
   "L",
   "UC"
  ],
  [
   "M",
   "AN"
  ],
  [
   " li",
   "e"
  ],
  [
   "re",
   "t"
  ],
  [
   "i",
   "le"
  ],
  [
   " f",
   "e"
  ],
  [
   "ed",
   "s"
  ],
  [
   ".",
   "—"
  ],
  [
   " m",
   "ind"
  ],
  [
   " S",
   "ir"
  ],
  [
   "r",
   "u"
  ],
  [
   " wor",
   "th"
  ],
  [
   " n",
   "at"
  ],
  [
   "u",
   "c"
  ],
  [
   "ct",
   "or"
  ],
  [
   "N",
   "ot"
  ],
  [
   " th",
   "r"
  ],
  [
   " s",
   "le"
  ],
  [
   " him",
   "self"
  ],
  [
   " c",
   "hi"
  ],
  [
   "f",
   "t"
  ],
  [
   " lord",
   "s"
  ],
  [
   " de",
   "ar"
  ],
  [
   "en",
   "s"
  ],
  [
   " fa",
   "ce"
  ],
  [
   "ut",
   "h"
  ],
  [
   "O",
   "TH"
  ],
  [
   " pla",
   "ce"
  ],
  [
   "a",
   "c"
  ],
  [
   "a",
   "il"
  ],
  [
   " re",
   "st"
  ],
  [
   " fa",
   "ll"
  ],
  [
   " con",
   "s"
  ],
  [
   "ou",
   "d"
  ],
  [
   "R",
   "ESS"
  ],
  [
   "O",
   "ST"
  ],
  [
   " e",
   "l"
  ],
  [
   " again",
   "st"
  ],
  [
   " g",
   "ri"
  ],
  [
   " con",
   "f"
  ],
  [
   " t",
   "ri"
  ],
  [
   " g",
   "i"
  ],
  [
   " ",
   "You"
  ],
  [
   "I",
   "D"
  ],
  [
   "A",
   "G"
  ],
  [
   "is",
   "on"
  ],
  [
   " p",
   "ass"
  ],
  [
   "S",
   "ir"
  ],
  [
   "G",
   "ood"
  ],
  [
   "D",
   "o"
  ],
  [
   "er",
   "ve"
  ],
  [
   "N",
   "ay"
  ],
  [
   "W",
   "N"
  ],
  [
   " k",
   "ind"
  ],
  [
   "g",
   "et"
  ],
  [
   " w",
   "oman"
  ],
  [
   " f",
   "ull"
  ],
  [
   " d",
   "r"
  ],
  [
   "Th",
   "y"
  ],
  [
   " pres",
   "ent"
  ],
  [
   " u",
   "nder"
  ],
  [
   " for",
   "t"
  ],
  [
   "LE",
   "T"
  ],
  [
   " th",
   "ine"
  ],
  [
   "r",
   "ance"
  ],
  [
   "he",
   "d"
  ],
  [
   "M",
   "AR"
  ],
  [
   "ra",
   "ce"
  ],
  [
   " sw",
   "ord"
  ],
  [
   " se",
   "em"
  ],
  [
   " En",
   "g"
  ],
  [
   " g",
   "one"
  ],
  [
   "il",
   "t"
  ],
  [
   " Ca",
   "esar"
  ],
  [
   "I",
   "AN"
  ],
  [
   " word",
   "s"
  ],
  [
   " t",
   "ill"
  ],
  [
   " n",
   "one"
  ],
  [
   "ow",
   "s"
  ],
  [
   " t",
   "re"
  ],
  [
   " pl",
   "ay"
  ],
  [
   " st",
   "ay"
  ],
  [
   "in",
   "ess"
  ],
  [
   "G",
   "O"
  ],
  [
   " p",
   "e"
  ],
  [
   " b",
   "oy"
  ],
  [
   "p",
   "on"
  ],
  [
   "P",
   "R"
  ],
  [
   " t",
   "urn"
  ],
  [
   "um",
   "p"
  ],
  [
   "ir",
   "t"
  ],
  [
   " tong",
   "ue"
  ],
  [
   "W",
   "ill"
  ],
  [
   "I",
   "ST"
  ],
  [
   "B",
   "ER"
  ],
  [
   " o",
   "’"
  ],
  [
   " c",
   "h"
  ],
  [
   "in",
   "t"
  ],
  [
   " c",
   "he"
  ],
  [
   "s",
   "and"
  ],
  [
   " c",
   "ur"
  ],
  [
   "l",
   "t"
  ]
 ]
}
