{
 "kind": "bpe",
 "vocab_size": 2048,
 "start_token": "<|start|>",
 "start_id": 2047,
 "fitted_on": {
  "split_sha256": "7095c396779d438d23fb4c3220719a33d3fc1b575f5b8404c6b5306c17a8c03c",
  "set": "train",
  "works": 39,
  "chars": 4811336,
  "text_sha256": "a554df7850d2095fc42a95aa510b5cdfd6bb987a8da6583dee86ca997dcf367e",
  "note": "alphabet and merges computed from the 39 training works only; validation and test works were only checked for characters outside that alphabet, and encoded"
 },
 "chars": [
  "\n",
  " ",
  "!",
  "&",
  "(",
  ")",
  ",",
  "-",
  ".",
  "0",
  "1",
  "2",
  "3",
  "4",
  "5",
  "6",
  "7",
  "8",
  "9",
  ":",
  ";",
  "?",
  "A",
  "B",
  "C",
  "D",
  "E",
  "F",
  "G",
  "H",
  "I",
  "J",
  "K",
  "L",
  "M",
  "N",
  "O",
  "P",
  "Q",
  "R",
  "S",
  "T",
  "U",
  "V",
  "W",
  "X",
  "Y",
  "Z",
  "[",
  "]",
  "_",
  "a",
  "b",
  "c",
  "d",
  "e",
  "f",
  "g",
  "h",
  "i",
  "j",
  "k",
  "l",
  "m",
  "n",
  "o",
  "p",
  "q",
  "r",
  "s",
  "t",
  "u",
  "v",
  "w",
  "x",
  "y",
  "z",
  "À",
  "Æ",
  "Ç",
  "É",
  "à",
  "â",
  "æ",
  "ç",
  "è",
  "é",
  "ê",
  "ë",
  "î",
  "œ",
  "—",
  "‘",
  "’",
  "“",
  "”",
  "…"
 ],
 "merges": [
  [
   " ",
   "t"
  ],
  [
   "h",
   "e"
  ],
  [
   " ",
   "a"
  ],
  [
   "o",
   "u"
  ],
  [
   " ",
   "s"
  ],
  [
   "i",
   "n"
  ],
  [
   " ",
   "m"
  ],
  [
   " ",
   "w"
  ],
  [
   "r",
   "e"
  ],
  [
   "h",
   "a"
  ],
  [
   "n",
   "d"
  ],
  [
   "\n",
   "\n"
  ],
  [
   " t",
   "he"
  ],
  [
   " ",
   "b"
  ],
  [
   "i",
   "s"
  ],
  [
   "e",
   "r"
  ],
  [
   "o",
   "r"
  ],
  [
   "l",
   "l"
  ],
  [
   " ",
   "f"
  ],
  [
   "o",
   "n"
  ],
  [
   "i",
   "t"
  ],
  [
   "e",
   "s"
  ],
  [
   " ",
   "d"
  ],
  [
   " ",
   "c"
  ],
  [
   " ",
   "l"
  ],
  [
   " ",
   "o"
  ],
  [
   "e",
   "n"
  ],
  [
   " ",
   "n"
  ],
  [
   " ",
   "y"
  ],
  [
   "a",
   "r"
  ],
  [
   " t",
   "h"
  ],
  [
   " ",
   "h"
  ],
  [
   " ",
   "p"
  ],
  [
   " y",
   "ou"
  ],
  [
   " t",
   "o"
  ],
  [
   " a",
   "nd"
  ],
  [
   " ",
   "I"
  ],
  [
   "ha",
   "t"
  ],
  [
   " o",
   "f"
  ],
  [
   " ",
   "he"
  ],
  [
   "a",
   "n"
  ],
  [
   "o",
   "t"
  ],
  [
   "v",
   "e"
  ],
  [
   "s",
   "t"
  ],
  [
   "in",
   "g"
  ],
  [
   "o",
   "w"
  ],
  [
   "o",
   "m"
  ],
  [
   " ",
   "g"
  ],
  [
   "a",
   "t"
  ],
  [
   "e",
   "d"
  ],
  [
   " ",
   "in"
  ],
  [
   " b",
   "e"
  ],
  [
   "s",
   "e"
  ],
  [
   "c",
   "e"
  ],
  [
   "e",
   "t"
  ],
  [
   " ",
   "ha"
  ],
  [
   " m",
   "y"
  ],
  [
   "l",
   "d"
  ],
  [
   "a",
   "y"
  ],
  [
   "l",
   "e"
  ],
  [
   "u",
   "t"
  ],
  [
   "i",
   "r"
  ],
  [
   "i",
   "m"
  ],
  [
   "it",
   "h"
  ],
  [
   " m",
   "e"
  ],
  [
   "c",
   "h"
  ],
  [
   "g",
   "h"
  ],
  [
   " n",
   "ot"
  ],
  [
   "i",
   "ll"
  ],
  [
   " ",
   "is"
  ],
  [
   " ",
   " "
  ],
  [
   " ",
   "e"
  ],
  [
   " t",
   "hat"
  ],
  [
   "k",
   "e"
  ],
  [
   "A",
   "nd"
  ],
  [
   "o",
   "o"
  ],
  [
   "ou",
   "r"
  ],
  [
   " f",
   "or"
  ],
  [
   "’",
   "s"
  ],
  [
   "u",
   "s"
  ],
  [
   " w",
   "ith"
  ],
  [
   " w",
   "e"
  ],
  [
   "T",
   "he"
  ],
  [
   "t",
   "er"
  ],
  [
   "a",
   "s"
  ],
  [
   "a",
   "d"
  ],
  [
   " ",
   "it"
  ],
  [
   "r",
   "i"
  ],
  [
   "a",
   "l"
  ],
  [
   "en",
   "t"
  ],
  [
   " h",
   "is"
  ],
  [
   " you",
   "r"
  ],
  [
   "he",
   "r"
  ],
  [
   " s",
   "t"
  ],
  [
   "i",
   "d"
  ],
  [
   "r",
   "a"
  ],
  [
   "u",
   "n"
  ],
  [
   " th",
   "ou"
  ],
  [
   "gh",
   "t"
  ],
  [
   " h",
   "im"
  ],
  [
   "or",
   "d"
  ],
  [
   "l",
   "y"
  ],
  [
   " ",
   "re"
  ],
  [
   " ha",
   "ve"
  ],
  [
   " ",
   "on"
  ],
  [
   " l",
   "i"
  ],
  [
   "om",
   "e"
  ],
  [
   " th",
   "is"
  ],
  [
   " s",
   "o"
  ],
  [
   " ",
   "k"
  ],
  [
   "u",
   "r"
  ],
  [
   " a",
   "s"
  ],
  [
   "v",
   "er"
  ],
  [
   "o",
   "re"
  ],
  [
   "ou",
   "ld"
  ],
  [
   "a",
   "in"
  ],
  [
   "r",
   "o"
  ],
  [
   " d",
   "e"
  ],
  [
   "E",
   "N"
  ],
  [
   " d",
   "o"
  ],
  [
   "c",
   "k"
  ],
  [
   "h",
   "i"
  ],
  [
   " w",
   "ill"
  ],
  [
   "oo",
   "d"
  ],
  [
   "a",
   "m"
  ],
  [
   "U",
   "S"
  ],
  [
   " s",
   "ha"
  ],
  [
   "es",
   "s"
  ],
  [
   "’",
   "d"
  ],
  [
   " s",
   "e"
  ],
  [
   " he",
   "r"
  ],
  [
   "i",
   "on"
  ],
  [
   "A",
   "N"
  ],
  [
   " ",
   "S"
  ],
  [
   " ",
   "C"
  ],
  [
   "es",
   "t"
  ],
  [
   "g",
   "e"
  ],
  [
   "e",
   "a"
  ],
  [
   "[",
   "_"
  ],
  [
   "a",
   "nd"
  ],
  [
   "E",
   "R"
  ],
  [
   " l",
   "o"
  ],
  [
   "A",
   "R"
  ],
  [
   " th",
   "y"
  ],
  [
   "t",
   "h"
  ],
  [
   " n",
   "o"
  ],
  [
   " ",
   "H"
  ],
  [
   "T",
   "h"
  ],
  [
   "I",
   "N"
  ],
  [
   " a",
   "n"
  ],
  [
   " a",
   "ll"
  ],
  [
   "i",
   "l"
  ],
  [
   "T",
   "o"
  ],
  [
   " b",
   "ut"
  ],
  [
   " ",
   "A"
  ],
  [
   "a",
   "ke"
  ],
  [
   " ",
   "u"
  ],
  [
   ".",
   "_"
  ],
  [
   " s",
   "u"
  ],
  [
   "i",
   "f"
  ],
  [
   "e",
   "ll"
  ],
  [
   " f",
   "a"
  ],
  [
   "c",
   "t"
  ],
  [
   " s",
   "p"
  ],
  [
   " ",
   "M"
  ],
  [
   "e",
   "ar"
  ],
  [
   "i",
   "ght"
  ],
  [
   " ",
   "P"
  ],
  [
   "E",
   "S"
  ],
  [
   "._",
   "]"
  ],
  [
   " k",
   "n"
  ],
  [
   "ha",
   "n"
  ],
  [
   "h",
   "o"
  ],
  [
   " a",
   "re"
  ],
  [
   " ",
   "B"
  ],
  [
   " sha",
   "ll"
  ],
  [
   "u",
   "e"
  ],
  [
   " ",
   "v"
  ],
  [
   " ",
   "W"
  ],
  [
   " the",
   "e"
  ],
  [
   "T",
   "hat"
  ],
  [
   "a",
   "st"
  ],
  [
   "r",
   "om"
  ],
  [
   "ar",
   "d"
  ],
  [
   "ar",
   "t"
  ],
  [
   " ",
   "L"
  ],
  [
   " b",
   "y"
  ],
  [
   " s",
   "h"
  ],
  [
   "O",
   "N"
  ],
  [
   " ",
   "our"
  ],
  [
   " ",
   "G"
  ],
  [
   "an",
   "t"
  ],
  [
   " n",
   "e"
  ],
  [
   "e",
   "nd"
  ],
  [
   " m",
   "an"
  ],
  [
   "u",
   "st"
  ],
  [
   "E",
   "n"
  ],
  [
   "in",
   "e"
  ],
  [
   " a",
   "t"
  ],
  [
   "ou",
   "s"
  ],
  [
   "re",
   "s"
  ],
  [
   "  ",
   "  "
  ],
  [
   "O",
   "R"
  ],
  [
   " a",
   "m"
  ],
  [
   " c",
   "om"
  ],
  [
   " u",
   "p"
  ],
  [
   "se",
   "l"
  ],
  [
   "on",
   "e"
  ],
  [
   " l",
   "ord"
  ],
  [
   "ou",
   "t"
  ],
  [
   "S",
   "T"
  ],
  [
   "in",
   "d"
  ],
  [
   "i",
   "e"
  ],
  [
   " g",
   "o"
  ],
  [
   "e",
   "m"
  ],
  [
   "’",
   "ll"
  ],
  [
   "he",
   "n"
  ],
  [
   "i",
   "ve"
  ],
  [
   " g",
   "ood"
  ],
  [
   "er",
   "s"
  ],
  [
   " s",
   "he"
  ],
  [
   "on",
   "g"
  ],
  [
   "i",
   "c"
  ],
  [
   "r",
   "y"
  ],
  [
   " c",
   "on"
  ],
  [
   "hi",
   "ch"
  ],
  [
   " f",
   "rom"
  ],
  [
   "u",
   "m"
  ],
  [
   "ot",
   "h"
  ],
  [
   " lo",
   "ve"
  ],
  [
   " ",
   "F"
  ],
  [
   " w",
   "hat"
  ],
  [
   "u",
   "l"
  ],
  [
   "v",
   "en"
  ],
  [
   "r",
   "ow"
  ],
  [
   "q",
   "u"
  ],
  [
   "’",
   "t"
  ],
  [
   "b",
   "le"
  ],
  [
   "E",
   "x"
  ],
  [
   " the",
   "m"
  ],
  [
   "A",
   "L"
  ],
  [
   "En",
   "ter"
  ],
  [
   " ",
   "r"
  ],
  [
   " b",
   "l"
  ],
  [
   " s",
   "w"
  ],
  [
   " kn",
   "ow"
  ],
  [
   " w",
   "ould"
  ],
  [
   " w",
   "as"
  ],
  [
   " t",
   "r"
  ],
  [
   "o",
   "l"
  ],
  [
   " m",
   "ore"
  ],
  [
   "O",
   "L"
  ],
  [
   "p",
   "p"
  ],
  [
   "B",
   "ut"
  ],
  [
   " ",
   "un"
  ],
  [
   " ",
   "O"
  ],
  [
   " the",
   "ir"
  ],
  [
   "he",
   "re"
  ],
  [
   " ",
   "D"
  ],
  [
   " p",
   "r"
  ],
  [
   "f",
   "e"
  ],
  [
   "o",
   "st"
  ],
  [
   " c",
   "a"
  ],
  [
   "e",
   "p"
  ],
  [
   "u",
   "re"
  ],
  [
   " n",
   "ow"
  ],
  [
   " c",
   "an"
  ],
  [
   "re",
   "at"
  ],
  [
   " the",
   "y"
  ],
  [
   " the",
   "re"
  ],
  [
   " ",
   "hat"
  ],
  [
   " w",
   "or"
  ],
  [
   "e",
   "l"
  ],
  [
   " t",
   "han"
  ],
  [
   " ",
   "or"
  ],
  [
   "sel",
   "f"
  ],
  [
   " ",
   "T"
  ],
  [
   " a",
   "r"
  ],
  [
   " ",
   "us"
  ],
  [
   "W",
   "hat"
  ],
  [
   "H",
   "e"
  ],
  [
   "at",
   "e"
  ],
  [
   "or",
   "t"
  ],
  [
   "l",
   "a"
  ],
  [
   "n",
   "t"
  ],
  [
   "T",
   "H"
  ],
  [
   "in",
   "k"
  ],
  [
   " s",
   "ir"
  ],
  [
   " ",
   "R"
  ],
  [
   "L",
   "E"
  ],
  [
   "A",
   "s"
  ],
  [
   "I",
   "O"
  ],
  [
   " ",
   "if"
  ],
  [
   "Y",
   "ou"
  ],
  [
   " l",
   "et"
  ],
  [
   " s",
   "ay"
  ],
  [
   "C",
   "H"
  ],
  [
   "v",
   "es"
  ],
  [
   "h",
   "y"
  ],
  [
   "am",
   "e"
  ],
  [
   " he",
   "re"
  ],
  [
   "F",
   "or"
  ],
  [
   " ",
   "The"
  ],
  [
   "at",
   "h"
  ],
  [
   " li",
   "ke"
  ],
  [
   "oo",
   "k"
  ],
  [
   "a",
   "k"
  ],
  [
   "ot",
   "her"
  ],
  [
   "o",
   "d"
  ],
  [
   " se",
   "e"
  ],
  [
   "is",
   "h"
  ],
  [
   "E",
   "L"
  ],
  [
   " the",
   "n"
  ],
  [
   "i",
   "g"
  ],
  [
   " on",
   "e"
  ],
  [
   "at",
   "her"
  ],
  [
   "ou",
   "nd"
  ],
  [
   "I",
   "A"
  ],
  [
   " we",
   "ll"
  ],
  [
   "f",
   "ore"
  ],
  [
   " ",
   "j"
  ],
  [
   " ",
   "K"
  ],
  [
   " hat",
   "h"
  ],
  [
   "IN",
   "G"
  ],
  [
   " sh",
   "ould"
  ],
  [
   " m",
   "ay"
  ],
  [
   " c",
   "ome"
  ],
  [
   " d",
   "id"
  ],
  [
   " b",
   "r"
  ],
  [
   " ",
   "en"
  ],
  [
   "re",
   "d"
  ],
  [
   "is",
   "t"
  ],
  [
   "I",
   "US"
  ],
  [
   " s",
   "a"
  ],
  [
   " m",
   "ake"
  ],
  [
   "i",
   "ce"
  ],
  [
   "g",
   "ain"
  ],
  [
   "M",
   "y"
  ],
  [
   " m",
   "ad"
  ],
  [
   "an",
   "ce"
  ],
  [
   " m",
   "ust"
  ],
  [
   " ",
   "out"
  ],
  [
   " up",
   "on"
  ],
  [
   " h",
   "o"
  ],
  [
   "ver",
   "y"
  ],
  [
   "ea",
   "k"
  ],
  [
   "un",
   "t"
  ],
  [
   "p",
   "e"
  ],
  [
   " w",
   "hich"
  ],
  [
   "R",
   "O"
  ],
  [
   " we",
   "re"
  ],
  [
   "it",
   "y"
  ],
  [
   "im",
   "e"
  ],
  [
   " ha",
   "d"
  ],
  [
   "i",
   "es"
  ],
  [
   "L",
   "O"
  ],
  [
   "I",
   "R"
  ],
  [
   " to",
   "o"
  ],
  [
   " ",
   "E"
  ],
  [
   "  ",
   " "
  ],
  [
   "f",
   "f"
  ],
  [
   " p",
   "ro"
  ],
  [
   "en",
   "ce"
  ],
  [
   " he",
   "art"
  ],
  [
   "t",
   "o"
  ],
  [
   "K",
   "ING"
  ],
  [
   "p",
   "t"
  ],
  [
   "or",
   "n"
  ],
  [
   " w",
   "hen"
  ],
  [
   " su",
   "ch"
  ],
  [
   " ",
   "’t"
  ],
  [
   "u",
   "ch"
  ],
  [
   " h",
   "on"
  ],
  [
   " e",
   "y"
  ],
  [
   "a",
   "re"
  ],
  [
   " p",
   "o"
  ],
  [
   "as",
   "s"
  ],
  [
   "a",
   "ll"
  ],
  [
   " ha",
   "nd"
  ],
  [
   "a",
   "u"
  ],
  [
   "I",
   "f"
  ],
  [
   "Th",
   "ou"
  ],
  [
   " e",
   "x"
  ],
  [
   "i",
   "ck"
  ],
  [
   " d",
   "is"
  ],
  [
   "t",
   "her"
  ],
  [
   "n",
   "ess"
  ],
  [
   "o",
   "nd"
  ],
  [
   "Th",
   "is"
  ],
  [
   " ",
   "N"
  ],
  [
   " a",
   "l"
  ],
  [
   "is",
   "e"
  ],
  [
   " y",
   "et"
  ],
  [
   "id",
   "e"
  ],
  [
   " a",
   "gain"
  ],
  [
   "i",
   "re"
  ],
  [
   " w",
   "ho"
  ],
  [
   "W",
   "ith"
  ],
  [
   " sp",
   "eak"
  ],
  [
   " of",
   "f"
  ],
  [
   " ",
   "qu"
  ],
  [
   " K",
   "ing"
  ],
  [
   " I",
   "’ll"
  ],
  [
   "i",
   "o"
  ],
  [
   "w",
   "n"
  ],
  [
   "a",
   "ge"
  ],
  [
   "ur",
   "n"
  ],
  [
   "e",
   "et"
  ],
  [
   "AN",
   "T"
  ],
  [
   " s",
   "ome"
  ],
  [
   "I",
   "C"
  ],
  [
   " f",
   "ri"
  ],
  [
   "u",
   "d"
  ],
  [
   "ing",
   "s"
  ],
  [
   "o",
   "se"
  ],
  [
   "I",
   "n"
  ],
  [
   " th",
   "ink"
  ],
  [
   "AR",
   "D"
  ],
  [
   "o",
   "y"
  ],
  [
   "i",
   "us"
  ],
  [
   " ",
   "J"
  ],
  [
   "ow",
   "n"
  ],
  [
   "’",
   "st"
  ],
  [
   " f",
   "o"
  ],
  [
   " p",
   "l"
  ],
  [
   " the",
   "se"
  ],
  [
   " a",
   "b"
  ],
  [
   "res",
   "s"
  ],
  [
   " m",
   "ine"
  ],
  [
   "ad",
   "y"
  ],
  [
   "A",
   "M"
  ],
  [
   " f",
   "ather"
  ],
  [
   "I",
   "L"
  ],
  [
   " f",
   "l"
  ],
  [
   "e",
   "unt"
  ],
  [
   " h",
   "ow"
  ],
  [
   " g",
   "reat"
  ],
  [
   "Ex",
   "eunt"
  ],
  [
   " t",
   "ime"
  ],
  [
   " t",
   "w"
  ],
  [
   " he",
   "a"
  ],
  [
   " fri",
   "end"
  ],
  [
   " ",
   "ro"
  ],
  [
   "A",
   "T"
  ],
  [
   " c",
   "ha"
  ],
  [
   "W",
   "hy"
  ],
  [
   "e",
   "f"
  ],
  [
   "ES",
   "S"
  ],
  [
   "in",
   "ce"
  ],
  [
   "ent",
   "le"
  ],
  [
   "ast",
   "er"
  ],
  [
   "w",
   "ay"
  ],
  [
   "EN",
   "E"
  ],
  [
   " g",
   "ive"
  ],
  [
   "U",
   "C"
  ],
  [
   "H",
   "ow"
  ],
  [
   " g",
   "ra"
  ],
  [
   "a",
   "ve"
  ],
  [
   " t",
   "ake"
  ],
  [
   "at",
   "ion"
  ],
  [
   " w",
   "here"
  ],
  [
   " m",
   "uch"
  ],
  [
   " d",
   "es"
  ],
  [
   "Ex",
   "it"
  ],
  [
   "n",
   "g"
  ],
  [
   "N",
   "o"
  ],
  [
   "re",
   "e"
  ],
  [
   " ne",
   "ver"
  ],
  [
   "S",
   "o"
  ],
  [
   "W",
   "e"
  ],
  [
   " t",
   "ell"
  ],
  [
   " be",
   "t"
  ],
  [
   " m",
   "ost"
  ],
  [
   " ",
   "ri"
  ],
  [
   "u",
   "ll"
  ],
  [
   "ou",
   "gh"
  ],
  [
   "B",
   "e"
  ],
  [
   "O",
   "f"
  ],
  [
   "a",
   "ck"
  ],
  [
   " th",
   "’"
  ],
  [
   "o",
   "s"
  ],
  [
   " he",
   "ar"
  ],
  [
   " d",
   "ay"
  ],
  [
   " m",
   "en"
  ],
  [
   " l",
   "ea"
  ],
  [
   " l",
   "ook"
  ],
  [
   "ig",
   "n"
  ],
  [
   " m",
   "ar"
  ],
  [
   "it",
   "her"
  ],
  [
   "it",
   "e"
  ],
  [
   "b",
   "er"
  ],
  [
   " d",
   "oth"
  ],
  [
   "l",
   "i"
  ],
  [
   " p",
   "art"
  ],
  [
   " li",
   "fe"
  ],
  [
   "c",
   "es"
  ],
  [
   " o",
   "ther"
  ],
  [
   " w",
   "ord"
  ],
  [
   "f",
   "ul"
  ],
  [
   "n",
   "ot"
  ],
  [
   "ou",
   "l"
  ],
  [
   " H",
   "e"
  ],
  [
   "F",
   "F"
  ],
  [
   "W",
   "hich"
  ],
  [
   " bl",
   "ood"
  ],
  [
   " ar",
   "t"
  ],
  [
   " hon",
   "our"
  ],
  [
   "a",
   "g"
  ],
  [
   "c",
   "i"
  ],
  [
   " e",
   "ar"
  ],
  [
   "W",
   "ho"
  ],
  [
   " fa",
   "ir"
  ],
  [
   " de",
   "ath"
  ],
  [
   " w",
   "r"
  ],
  [
   "’",
   "T"
  ],
  [
   "S",
   "C"
  ],
  [
   "w",
   "ard"
  ],
  [
   "c",
   "he"
  ],
  [
   "p",
   "er"
  ],
  [
   "d",
   "e"
  ],
  [
   "er",
   "v"
  ],
  [
   "an",
   "s"
  ],
  [
   " f",
   "ear"
  ],
  [
   "i",
   "gh"
  ],
  [
   "o",
   "ld"
  ],
  [
   " g",
   "entle"
  ],
  [
   "oo",
   "l"
  ],
  [
   " p",
   "le"
  ],
  [
   "ou",
   "nt"
  ],
  [
   "E",
   "T"
  ],
  [
   "L",
   "A"
  ],
  [
   " com",
   "m"
  ],
  [
   "it",
   "t"
  ],
  [
   "I",
   "t"
  ],
  [
   " sw",
   "eet"
  ],
  [
   " an",
   "y"
  ],
  [
   "o",
   "ve"
  ],
  [
   " s",
   "on"
  ],
  [
   "    ",
   "    "
  ],
  [
   " s",
   "c"
  ],
  [
   " o",
   "wn"
  ],
  [
   " ",
   "ra"
  ],
  [
   "m",
   "ent"
  ],
  [
   " p",
   "er"
  ],
  [
   "e",
   "e"
  ],
  [
   "h",
   "ing"
  ],
  [
   "i",
   "a"
  ],
  [
   " st",
   "r"
  ],
  [
   " ca",
   "ll"
  ],
  [
   "’",
   "er"
  ],
  [
   " a",
   "d"
  ],
  [
   "nd",
   "er"
  ],
  [
   " w",
   "ar"
  ],
  [
   "ll",
   "ow"
  ],
  [
   " mad",
   "e"
  ],
  [
   "b",
   "l"
  ],
  [
   "SC",
   "ENE"
  ],
  [
   " tr",
   "ue"
  ],
  [
   " ",
   "“"
  ],
  [
   "l",
   "and"
  ],
  [
   " n",
   "ight"
  ],
  [
   "a",
   "se"
  ],
  [
   " hea",
   "ven"
  ],
  [
   " w",
   "h"
  ],
  [
   "I",
   "T"
  ],
  [
   "row",
   "n"
  ],
  [
   "re",
   "n"
  ],
  [
   "m",
   "an"
  ],
  [
   " ey",
   "es"
  ],
  [
   "u",
   "ke"
  ],
  [
   "C",
   "A"
  ],
  [
   " ’t",
   "is"
  ],
  [
   " ",
   "And"
  ],
  [
   "Q",
   "U"
  ],
  [
   "I",
   "s"
  ],
  [
   "D",
   "U"
  ],
  [
   "B",
   "y"
  ],
  [
   ".",
   "]"
  ],
  [
   "W",
   "hen"
  ],
  [
   " L",
   "ord"
  ],
  [
   " ",
   "very"
  ],
  [
   "ct",
   "ion"
  ],
  [
   " a",
   "pp"
  ],
  [
   "W",
   "here"
  ],
  [
   " ",
   "ke"
  ],
  [
   "o",
   "ck"
  ],
  [
   "or",
   "row"
  ],
  [
   " can",
   "not"
  ],
  [
   "AN",
   "D"
  ],
  [
   " wor",
   "ld"
  ],
  [
   " l",
   "a"
  ],
  [
   " be",
   "en"
  ],
  [
   " B",
   "ut"
  ],
  [
   "’T",
   "is"
  ],
  [
   " p",
   "re"
  ],
  [
   "Y",
   "our"
  ],
  [
   "P",
   "H"
  ],
  [
   "E",
   "M"
  ],
  [
   " W",
   "hat"
  ],
  [
   " ",
   "V"
  ],
  [
   " pr",
   "ay"
  ],
  [
   "A",
   "C"
  ],
  [
   " be",
   "ar"
  ],
  [
   "t",
   "y"
  ],
  [
   " ha",
   "st"
  ],
  [
   "p",
   "s"
  ],
  [
   "L",
   "et"
  ],
  [
   "The",
   "re"
  ],
  [
   " a",
   "f"
  ],
  [
   "w",
   "e"
  ],
  [
   "s",
   "s"
  ],
  [
   " ",
   "im"
  ],
  [
   "c",
   "c"
  ],
  [
   "EN",
   "T"
  ],
  [
   " c",
   "l"
  ],
  [
   " w",
   "it"
  ],
  [
   " w",
   "ay"
  ],
  [
   " a",
   "way"
  ],
  [
   " n",
   "or"
  ],
  [
   " d",
   "one"
  ],
  [
   "\n\n",
   "\n"
  ],
  [
   "ou",
   "se"
  ],
  [
   "u",
   "se"
  ],
  [
   "au",
   "gh"
  ],
  [
   " k",
   "ing"
  ],
  [
   "om",
   "an"
  ],
  [
   " c",
   "our"
  ],
  [
   " b",
   "re"
  ],
  [
   "O",
   "r"
  ],
  [
   "v",
   "ing"
  ],
  [
   " l",
   "e"
  ],
  [
   " com",
   "p"
  ],
  [
   "IR",
   "ST"
  ],
  [
   " tw",
   "o"
  ],
  [
   "u",
   "ck"
  ],
  [
   "F",
   "IRST"
  ],
  [
   " he",
   "ad"
  ],
  [
   "a",
   "ble"
  ],
  [
   "is",
   "s"
  ],
  [
   "E",
   "D"
  ],
  [
   " br",
   "other"
  ],
  [
   " ar",
   "m"
  ],
  [
   "_",
   ".]"
  ],
  [
   " st",
   "and"
  ],
  [
   " n",
   "ame"
  ],
  [
   " d",
   "own"
  ],
  [
   " m",
   "ight"
  ],
  [
   " G",
   "od"
  ],
  [
   "l",
   "ess"
  ],
  [
   "i",
   "an"
  ],
  [
   " th",
   "us"
  ],
  [
   " C",
   "a"
  ],
  [
   " no",
   "ble"
  ],
  [
   " e",
   "ver"
  ],
  [
   "C",
   "ome"
  ],
  [
   " thou",
   "ght"
  ],
  [
   " p",
   "res"
  ],
  [
   " D",
   "uke"
  ],
  [
   "ear",
   "s"
  ],
  [
   "ue",
   "en"
  ],
  [
   "g",
   "er"
  ],
  [
   "A",
   "y"
  ],
  [
   "R",
   "I"
  ],
  [
   "ow",
   "er"
  ],
  [
   "k",
   "s"
  ],
  [
   "S",
   "E"
  ],
  [
   " con",
   "t"
  ],
  [
   "I",
   "M"
  ],
  [
   "if",
   "e"
  ],
  [
   " p",
   "la"
  ],
  [
   " lea",
   "ve"
  ],
  [
   "l",
   "es"
  ],
  [
   "I",
   "’ll"
  ],
  [
   " o",
   "ld"
  ],
  [
   "ain",
   "t"
  ],
  [
   "U",
   "R"
  ],
  [
   "ST",
   "A"
  ],
  [
   "or",
   "s"
  ],
  [
   " l",
   "ong"
  ],
  [
   "as",
   "on"
  ],
  [
   "a",
   "ch"
  ],
  [
   " be",
   "fore"
  ],
  [
   "d",
   "s"
  ],
  [
   " be",
   "g"
  ],
  [
   " f",
   "ool"
  ],
  [
   "ir",
   "st"
  ],
  [
   " ha",
   "r"
  ],
  [
   " c",
   "ould"
  ],
  [
   "N",
   "ow"
  ],
  [
   "s",
   "w"
  ],
  [
   "b",
   "e"
  ],
  [
   "p",
   "le"
  ],
  [
   " sh",
   "ow"
  ],
  [
   " com",
   "es"
  ],
  [
   "et",
   "h"
  ],
  [
   " p",
   "ur"
  ],
  [
   "ar",
   "k"
  ],
  [
   "K",
   "E"
  ],
  [
   " g",
   "l"
  ],
  [
   "e",
   "w"
  ],
  [
   " s",
   "oul"
  ],
  [
   " po",
   "or"
  ],
  [
   " be",
   "ing"
  ],
  [
   " li",
   "ve"
  ],
  [
   " l",
   "ady"
  ],
  [
   " e",
   "nd"
  ],
  [
   " bet",
   "ter"
  ],
  [
   "c",
   "ome"
  ],
  [
   "at",
   "ter"
  ],
  [
   " ne",
   "w"
  ],
  [
   "ha",
   "r"
  ],
  [
   "S",
   "S"
  ],
  [
   " st",
   "ill"
  ],
  [
   "m",
   "e"
  ],
  [
   " de",
   "ad"
  ],
  [
   "OR",
   "D"
  ],
  [
   "ak",
   "es"
  ],
  [
   " re",
   "m"
  ],
  [
   "t",
   "he"
  ],
  [
   "R",
   "U"
  ],
  [
   "augh",
   "ter"
  ],
  [
   "i",
   "ous"
  ],
  [
   " e",
   "very"
  ],
  [
   " f",
   "ind"
  ],
  [
   "ou",
   "ght"
  ],
  [
   "The",
   "n"
  ],
  [
   " ke",
   "ep"
  ],
  [
   " b",
   "est"
  ],
  [
   "CH",
   "ARD"
  ],
  [
   "ist",
   "ress"
  ],
  [
   "C",
   "E"
  ],
  [
   " re",
   "p"
  ],
  [
   " P",
   "r"
  ],
  [
   "t",
   "end"
  ],
  [
   "c",
   "y"
  ],
  [
   " b",
   "oth"
  ],
  [
   "C",
   "ON"
  ],
  [
   " man",
   "y"
  ],
  [
   "H",
   "AM"
  ],
  [
   " in",
   "to"
  ],
  [
   "t",
   "s"
  ],
  [
   " m",
   "er"
  ],
  [
   "n",
   "e"
  ],
  [
   "ha",
   "ll"
  ],
  [
   "IN",
   "E"
  ],
  [
   "i",
   "ed"
  ],
  [
   "ea",
   "ce"
  ],
  [
   " s",
   "m"
  ],
  [
   " not",
   "hing"
  ],
  [
   "f",
   "or"
  ],
  [
   "He",
   "re"
  ],
  [
   "i",
   "er"
  ],
  [
   " I",
   "f"
  ],
  [
   "m",
   "en"
  ],
  [
   "un",
   "e"
  ],
  [
   " p",
   "ri"
  ],
  [
   " friend",
   "s"
  ],
  [
   "The",
   "y"
  ],
  [
   "S",
   "he"
  ],
  [
   " m",
   "a"
  ],
  [
   " h",
   "ouse"
  ],
  [
   "itt",
   "le"
  ],
  [
   "S",
   "t"
  ],
  [
   "R",
   "Y"
  ],
  [
   " f",
   "ell"
  ],
  [
   "es",
   "ar"
  ],
  [
   " m",
   "aster"
  ],
  [
   " b",
   "ra"
  ],
  [
   "STA",
   "FF"
  ],
  [
   "B",
   "E"
  ],
  [
   "E",
   "EN"
  ],
  [
   "w",
   "ell"
  ],
  [
   " my",
   "self"
  ],
  [
   " O",
   "F"
  ],
  [
   "AL",
   "STAFF"
  ],
  [
   "hi",
   "p"
  ],
  [
   "H",
   "is"
  ],
  [
   "ar",
   "ry"
  ],
  [
   "F",
   "ALSTAFF"
  ],
  [
   " s",
   "erv"
  ],
  [
   "I",
   "S"
  ],
  [
   " t",
   "ong"
  ],
  [
   "on",
   "s"
  ],
  [
   "er",
   "t"
  ],
  [
   " p",
   "ut"
  ],
  [
   "QU",
   "EEN"
  ],
  [
   "r",
   "ant"
  ],
  [
   " fo",
   "llow"
  ],
  [
   " A",
   "nt"
  ],
  [
   " l",
   "ittle"
  ],
  [
   "T",
   "han"
  ],
  [
   " s",
   "et"
  ],
  [
   " ey",
   "e"
  ],
  [
   " ",
   "’"
  ],
  [
   "ie",
   "ld"
  ],
  [
   " d",
   "aughter"
  ],
  [
   " ",
   "Y"
  ],
  [
   " p",
   "a"
  ],
  [
   " th",
   "ose"
  ],
  [
   "in",
   "s"
  ],
  [
   "W",
   "ell"
  ],
  [
   "at",
   "ch"
  ],
  [
   " w",
   "ife"
  ],
  [
   " ho",
   "ld"
  ],
  [
   " ",
   "En"
  ],
  [
   "v",
   "il"
  ],
  [
   "l",
   "f"
  ],
  [
   "DU",
   "KE"
  ],
  [
   "T",
   "ER"
  ],
  [
   " c",
   "o"
  ],
  [
   "it",
   "s"
  ],
  [
   "CON",
   "D"
  ],
  [
   " t",
   "ra"
  ],
  [
   " d",
   "ie"
  ],
  [
   " e",
   "m"
  ],
  [
   "ut",
   "y"
  ],
  [
   "ou",
   "n"
  ],
  [
   " h",
   "our"
  ],
  [
   " g",
   "u"
  ],
  [
   " f",
   "irst"
  ],
  [
   "IC",
   "K"
  ],
  [
   "SE",
   "COND"
  ],
  [
   " you",
   "ng"
  ],
  [
   "al",
   "k"
  ],
  [
   "L",
   "UC"
  ],
  [
   "M",
   "AN"
  ],
  [
   " li",
   "e"
  ],
  [
   "re",
   "t"
  ],
  [
   "i",
   "le"
  ],
  [
   " f",
   "e"
  ],
  [
   "ed",
   "s"
  ],
  [
   ".",
   "—"
  ],
  [
   " m",
   "ind"
  ],
  [
   " S",
   "ir"
  ],
  [
   "r",
   "u"
  ],
  [
   " wor",
   "th"
  ],
  [
   " n",
   "at"
  ],
  [
   "u",
   "c"
  ],
  [
   "ct",
   "or"
  ],
  [
   "N",
   "ot"
  ],
  [
   " th",
   "r"
  ],
  [
   " s",
   "le"
  ],
  [
   " him",
   "self"
  ],
  [
   " c",
   "hi"
  ],
  [
   "f",
   "t"
  ],
  [
   " lord",
   "s"
  ],
  [
   " de",
   "ar"
  ],
  [
   "en",
   "s"
  ],
  [
   " fa",
   "ce"
  ],
  [
   "ut",
   "h"
  ],
  [
   "O",
   "TH"
  ],
  [
   " pla",
   "ce"
  ],
  [
   "a",
   "c"
  ],
  [
   "a",
   "il"
  ],
  [
   " re",
   "st"
  ],
  [
   " fa",
   "ll"
  ],
  [
   " con",
   "s"
  ],
  [
   "ou",
   "d"
  ],
  [
   "R",
   "ESS"
  ],
  [
   "O",
   "ST"
  ],
  [
   " e",
   "l"
  ],
  [
   " again",
   "st"
  ],
  [
   " g",
   "ri"
  ],
  [
   " con",
   "f"
  ],
  [
   " t",
   "ri"
  ],
  [
   " g",
   "i"
  ],
  [
   " ",
   "You"
  ],
  [
   "I",
   "D"
  ],
  [
   "A",
   "G"
  ],
  [
   "is",
   "on"
  ],
  [
   " p",
   "ass"
  ],
  [
   "S",
   "ir"
  ],
  [
   "G",
   "ood"
  ],
  [
   "D",
   "o"
  ],
  [
   "er",
   "ve"
  ],
  [
   "N",
   "ay"
  ],
  [
   "W",
   "N"
  ],
  [
   " k",
   "ind"
  ],
  [
   "g",
   "et"
  ],
  [
   " w",
   "oman"
  ],
  [
   " f",
   "ull"
  ],
  [
   " d",
   "r"
  ],
  [
   "Th",
   "y"
  ],
  [
   " pres",
   "ent"
  ],
  [
   " u",
   "nder"
  ],
  [
   " for",
   "t"
  ],
  [
   "LE",
   "T"
  ],
  [
   " th",
   "ine"
  ],
  [
   "r",
   "ance"
  ],
  [
   "he",
   "d"
  ],
  [
   "M",
   "AR"
  ],
  [
   "ra",
   "ce"
  ],
  [
   " sw",
   "ord"
  ],
  [
   " se",
   "em"
  ],
  [
   " En",
   "g"
  ],
  [
   " g",
   "one"
  ],
  [
   "il",
   "t"
  ],
  [
   " Ca",
   "esar"
  ],
  [
   "I",
   "AN"
  ],
  [
   " word",
   "s"
  ],
  [
   " t",
   "ill"
  ],
  [
   " n",
   "one"
  ],
  [
   "ow",
   "s"
  ],
  [
   " t",
   "re"
  ],
  [
   " pl",
   "ay"
  ],
  [
   " st",
   "ay"
  ],
  [
   "in",
   "ess"
  ],
  [
   "G",
   "O"
  ],
  [
   " p",
   "e"
  ],
  [
   " b",
   "oy"
  ],
  [
   "p",
   "on"
  ],
  [
   "P",
   "R"
  ],
  [
   " t",
   "urn"
  ],
  [
   "um",
   "p"
  ],
  [
   "ir",
   "t"
  ],
  [
   " tong",
   "ue"
  ],
  [
   "W",
   "ill"
  ],
  [
   "I",
   "ST"
  ],
  [
   "B",
   "ER"
  ],
  [
   " o",
   "’"
  ],
  [
   " c",
   "h"
  ],
  [
   "in",
   "t"
  ],
  [
   " c",
   "he"
  ],
  [
   "s",
   "and"
  ],
  [
   " c",
   "ur"
  ],
  [
   "l",
   "t"
  ],
  [
   " re",
   "s"
  ],
  [
   "a",
   "b"
  ],
  [
   " A",
   "n"
  ],
  [
   "est",
   "y"
  ],
  [
   "c",
   "l"
  ],
  [
   " el",
   "se"
  ],
  [
   " af",
   "ter"
  ],
  [
   " M",
   "ar"
  ],
  [
   "sw",
   "er"
  ],
  [
   " cha",
   "r"
  ],
  [
   " br",
   "ing"
  ],
  [
   " c",
   "han"
  ],
  [
   " thou",
   "gh"
  ],
  [
   "b",
   "t"
  ],
  [
   "EN",
   "RY"
  ],
  [
   "n",
   "ce"
  ],
  [
   "PR",
   "IN"
  ],
  [
   " wr",
   "ong"
  ],
  [
   "ant",
   "s"
  ],
  [
   "A",
   "U"
  ],
  [
   " sa",
   "id"
  ],
  [
   " ple",
   "as"
  ],
  [
   "on",
   "y"
  ],
  [
   "it",
   "ion"
  ],
  [
   "ANT",
   "ON"
  ],
  [
   " un",
   "to"
  ],
  [
   "i",
   "x"
  ],
  [
   "H",
   "ave"
  ],
  [
   " f",
   "al"
  ],
  [
   " H",
   "ENRY"
  ],
  [
   "r",
   "ing"
  ],
  [
   "or",
   "se"
  ],
  [
   " who",
   "se"
  ],
  [
   " k",
   "ill"
  ],
  [
   " cour",
   "t"
  ],
  [
   "ce",
   "ive"
  ],
  [
   " on",
   "ce"
  ],
  [
   " im",
   "p"
  ],
  [
   " for",
   "th"
  ],
  [
   " a",
   "cc"
  ],
  [
   "S",
   "hall"
  ],
  [
   " an",
   "other"
  ],
  [
   "hi",
   "le"
  ],
  [
   " me",
   "et"
  ],
  [
   " h",
   "us"
  ],
  [
   " c",
   "rown"
  ],
  [
   "at",
   "i"
  ],
  [
   " b",
   "od"
  ],
  [
   " ri",
   "ght"
  ],
  [
   " d",
   "ra"
  ],
  [
   " c",
   "ount"
  ],
  [
   "b",
   "and"
  ],
  [
   " I",
   "I"
  ],
  [
   " ",
   "Q"
  ],
  [
   " p",
   "ra"
  ],
  [
   "HAM",
   "LET"
  ],
  [
   " me",
   "an"
  ],
  [
   "a",
   "p"
  ],
  [
   " be",
   "l"
  ],
  [
   "is",
   "ter"
  ],
  [
   "ee",
   "ch"
  ],
  [
   "G",
   "o"
  ],
  [
   "As",
   "ide"
  ],
  [
   " chi",
   "ld"
  ],
  [
   " an",
   "swer"
  ],
  [
   "N",
   "or"
  ],
  [
   " o",
   "ver"
  ],
  [
   " p",
   "eace"
  ],
  [
   " m",
   "atter"
  ],
  [
   " re",
   "ason"
  ],
  [
   " ha",
   "s"
  ],
  [
   " ",
   "_"
  ],
  [
   "l",
   "ed"
  ],
  [
   "g",
   "ed"
  ],
  [
   " re",
   "t"
  ],
  [
   "ill",
   "ain"
  ],
  [
   " m",
   "other"
  ],
  [
   " ho",
   "pe"
  ],
  [
   " go",
   "ds"
  ],
  [
   "R",
   "A"
  ],
  [
   "et",
   "s"
  ],
  [
   " d",
   "re"
  ],
  [
   "sel",
   "ves"
  ],
  [
   "on",
   "t"
  ],
  [
   " b",
   "id"
  ],
  [
   " b",
   "ack"
  ],
  [
   "e",
   "ct"
  ],
  [
   " ple",
   "ase"
  ],
  [
   " h",
   "um"
  ],
  [
   " li",
   "ght"
  ],
  [
   " hus",
   "band"
  ],
  [
   " d",
   "ou"
  ],
  [
   "S",
   "AL"
  ],
  [
   " sp",
   "ir"
  ],
  [
   "u",
   "ff"
  ],
  [
   "ar",
   "y"
  ],
  [
   " R",
   "ome"
  ],
  [
   " ca",
   "use"
  ],
  [
   " s",
   "l"
  ],
  [
   " ear",
   "th"
  ],
  [
   " fal",
   "se"
  ],
  [
   "ri",
   "ed"
  ],
  [
   "B",
   "O"
  ],
  [
   " he",
   "ard"
  ],
  [
   "I",
   "Z"
  ],
  [
   " thou",
   "sand"
  ],
  [
   " gra",
   "ce"
  ],
  [
   " p",
   "ower"
  ],
  [
   " let",
   "ter"
  ],
  [
   " j",
   "ust"
  ],
  [
   " b",
   "reat"
  ],
  [
   " as",
   "s"
  ],
  [
   "v",
   "y"
  ],
  [
   " ab",
   "out"
  ],
  [
   " B",
   "r"
  ],
  [
   "Y",
   "et"
  ],
  [
   " m",
   "o"
  ],
  [
   " fa",
   "ith"
  ],
  [
   "a",
   "ir"
  ],
  [
   " st",
   "re"
  ],
  [
   " be",
   "a"
  ],
  [
   "or",
   "k"
  ],
  [
   " str",
   "an"
  ],
  [
   " in",
   "de"
  ],
  [
   " hand",
   "s"
  ],
  [
   " h",
   "ome"
  ],
  [
   " g",
   "r"
  ],
  [
   " e",
   "ven"
  ],
  [
   "ur",
   "y"
  ],
  [
   "ES",
   "TER"
  ],
  [
   "A",
   "l"
  ],
  [
   " th",
   "ree"
  ],
  [
   " th",
   "ing"
  ],
  [
   "fe",
   "ct"
  ],
  [
   " he",
   "l"
  ],
  [
   "im",
   "es"
  ],
  [
   "i",
   "v"
  ],
  [
   "F",
   "rom"
  ],
  [
   "O",
   "ur"
  ],
  [
   "ar",
   "s"
  ],
  [
   " wh",
   "om"
  ],
  [
   " sle",
   "ep"
  ],
  [
   "ut",
   "e"
  ],
  [
   "om",
   "et"
  ],
  [
   "an",
   "y"
  ],
  [
   " v",
   "irt"
  ],
  [
   " inde",
   "ed"
  ],
  [
   " w",
   "ind"
  ],
  [
   " F",
   "rance"
  ],
  [
   "ad",
   "e"
  ],
  [
   "EL",
   "LO"
  ],
  [
   "G",
   "AR"
  ],
  [
   " st",
   "ate"
  ],
  [
   " he",
   "nce"
  ],
  [
   " b",
   "es"
  ],
  [
   " C",
   "ome"
  ],
  [
   "pe",
   "ct"
  ],
  [
   "i",
   "ld"
  ],
  [
   " so",
   "ld"
  ],
  [
   " go",
   "ld"
  ],
  [
   " dis",
   "c"
  ],
  [
   "i",
   "’"
  ],
  [
   "S",
   "H"
  ],
  [
   " o",
   "’er"
  ],
  [
   " h",
   "igh"
  ],
  [
   " ",
   "q"
  ],
  [
   "O",
   "M"
  ],
  [
   " su",
   "b"
  ],
  [
   "BE",
   "TH"
  ],
  [
   " there",
   "fore"
  ],
  [
   " than",
   "k"
  ],
  [
   " su",
   "re"
  ],
  [
   "or",
   "y"
  ],
  [
   "A",
   "ll"
  ],
  [
   " ",
   "To"
  ],
  [
   " m",
   "is"
  ],
  [
   " m",
   "akes"
  ],
  [
   "ul",
   "t"
  ],
  [
   "U",
   "pon"
  ],
  [
   " tr",
   "uth"
  ],
  [
   " do",
   "st"
  ],
  [
   "r",
   "ay"
  ],
  [
   "ci",
   "ous"
  ],
  [
   " s",
   "ent"
  ],
  [
   " nat",
   "ure"
  ],
  [
   " f",
   "ight"
  ],
  [
   " f",
   "ar"
  ],
  [
   " The",
   "re"
  ],
  [
   " F",
   "or"
  ],
  [
   "o",
   "h"
  ],
  [
   "T",
   "US"
  ],
  [
   " with",
   "in"
  ],
  [
   " v",
   "illain"
  ],
  [
   " L",
   "et"
  ],
  [
   "ard",
   "on"
  ],
  [
   "D",
   "O"
  ],
  [
   " v",
   "al"
  ],
  [
   "B",
   "EL"
  ],
  [
   " A",
   "t"
  ],
  [
   " st",
   "e"
  ],
  [
   " sha",
   "me"
  ],
  [
   " la",
   "w"
  ],
  [
   " s",
   "un"
  ],
  [
   " Q",
   "ueen"
  ],
  [
   " ",
   "i’"
  ],
  [
   "ous",
   "in"
  ],
  [
   "our",
   "s"
  ],
  [
   "R",
   "E"
  ],
  [
   " th",
   "ings"
  ],
  [
   " bre",
   "ak"
  ],
  [
   " b",
   "ed"
  ],
  [
   "oh",
   "n"
  ],
  [
   " E",
   "d"
  ],
  [
   "ou",
   "ch"
  ],
  [
   ",",
   "—"
  ],
  [
   "u",
   "nd"
  ],
  [
   "che",
   "s"
  ],
  [
   " you",
   "th"
  ],
  [
   " y",
   "e"
  ],
  [
   " st",
   "ri"
  ],
  [
   "n",
   "ing"
  ],
  [
   "f",
   "ort"
  ],
  [
   " q",
   "ueen"
  ],
  [
   "l",
   "et"
  ],
  [
   "che",
   "d"
  ],
  [
   " we",
   "l"
  ],
  [
   "p",
   "en"
  ],
  [
   "har",
   "d"
  ],
  [
   " c",
   "ame"
  ],
  [
   " u",
   "se"
  ],
  [
   " o",
   "b"
  ],
  [
   " b",
   "o"
  ],
  [
   "get",
   "her"
  ],
  [
   "at",
   "es"
  ],
  [
   " mad",
   "am"
  ],
  [
   " k",
   "iss"
  ],
  [
   " bod",
   "y"
  ],
  [
   " b",
   "ri"
  ],
  [
   "ie",
   "ve"
  ],
  [
   "en",
   "ry"
  ],
  [
   "RU",
   "TUS"
  ],
  [
   "O",
   "B"
  ],
  [
   ".",
   "”"
  ],
  [
   " t",
   "ears"
  ],
  [
   " t",
   "a"
  ],
  [
   " ha",
   "pp"
  ],
  [
   " ",
   "ill"
  ],
  [
   "RI",
   "CHARD"
  ],
  [
   " l",
   "ast"
  ],
  [
   "U",
   "N"
  ],
  [
   "A",
   "n"
  ],
  [
   " ma",
   "id"
  ],
  [
   "O",
   "P"
  ],
  [
   "LE",
   "ON"
  ],
  [
   "B",
   "RUTUS"
  ],
  [
   " en",
   "ough"
  ],
  [
   " ad",
   "v"
  ],
  [
   " ",
   "This"
  ],
  [
   "m",
   "s"
  ],
  [
   "C",
   "LO"
  ],
  [
   " h",
   "ither"
  ],
  [
   " b",
   "u"
  ],
  [
   " b",
   "an"
  ],
  [
   "B",
   "A"
  ],
  [
   " se",
   "c"
  ],
  [
   " new",
   "s"
  ],
  [
   "y",
   "al"
  ],
  [
   "S",
   "IR"
  ],
  [
   "A",
   "re"
  ],
  [
   " b",
   "us"
  ],
  [
   " Y",
   "ork"
  ],
  [
   "ent",
   "s"
  ],
  [
   "en",
   "er"
  ],
  [
   "L",
   "Y"
  ],
  [
   "IM",
   "ON"
  ],
  [
   " m",
   "on"
  ],
  [
   " fell",
   "ow"
  ],
  [
   "he",
   "s"
  ],
  [
   "E",
   "US"
  ],
  [
   "RO",
   "SAL"
  ],
  [
   " e",
   "re"
  ],
  [
   "ver",
   "s"
  ],
  [
   "d",
   "ay"
  ],
  [
   " hel",
   "p"
  ],
  [
   " ha",
   "ng"
  ],
  [
   "we",
   "en"
  ],
  [
   "OTH",
   "ELLO"
  ],
  [
   " se",
   "en"
  ],
  [
   " gentle",
   "man"
  ],
  [
   " c",
   "oun"
  ],
  [
   "i",
   "ly"
  ],
  [
   "ces",
   "ter"
  ],
  [
   " thr",
   "ough"
  ],
  [
   " gri",
   "ef"
  ],
  [
   "i",
   "ke"
  ],
  [
   "R",
   "e"
  ],
  [
   "IA",
   "GO"
  ],
  [
   " hon",
   "est"
  ],
  [
   "el",
   "s"
  ],
  [
   "I",
   "OL"
  ],
  [
   " w",
   "hy"
  ],
  [
   " g",
   "re"
  ],
  [
   " M",
   "y"
  ],
  [
   "ion",
   "s"
  ],
  [
   " sha",
   "lt"
  ],
  [
   " f",
   "ire"
  ],
  [
   " J",
   "ohn"
  ],
  [
   " B",
   "e"
  ],
  [
   "ound",
   "s"
  ],
  [
   " do",
   "es"
  ],
  [
   " L",
   "uc"
  ],
  [
   "PRIN",
   "CE"
  ],
  [
   " s",
   "ame"
  ],
  [
   " m",
   "istress"
  ],
  [
   " ca",
   "re"
  ],
  [
   "IST",
   "RESS"
  ],
  [
   "u",
   "es"
  ],
  [
   "M",
   "ISTRESS"
  ],
  [
   " H",
   "er"
  ],
  [
   "p",
   "l"
  ],
  [
   "n",
   "er"
  ],
  [
   "is",
   "ed"
  ],
  [
   " s",
   "ince"
  ],
  [
   " r",
   "ather"
  ],
  [
   " n",
   "ear"
  ],
  [
   "o",
   "f"
  ],
  [
   "CA",
   "SS"
  ],
  [
   " wel",
   "come"
  ],
  [
   " M",
   "aster"
  ],
  [
   "c",
   "om"
  ],
  [
   "ve",
   "re"
  ],
  [
   "r",
   "an"
  ],
  [
   "j",
   "ect"
  ],
  [
   "g",
   "ue"
  ],
  [
   "ho",
   "ld"
  ],
  [
   "ha",
   "m"
  ],
  [
   " pro",
   "ve"
  ],
  [
   " p",
   "ers"
  ],
  [
   " p",
   "ati"
  ],
  [
   " en",
   "em"
  ],
  [
   "id",
   "es"
  ],
  [
   " in",
   "st"
  ],
  [
   " c",
   "ousin"
  ],
  [
   "ic",
   "hard"
  ],
  [
   "at",
   "t"
  ],
  [
   "H",
   "ath"
  ],
  [
   "ER",
   "V"
  ],
  [
   "D",
   "EM"
  ],
  [
   "ANTON",
   "Y"
  ],
  [
   "us",
   "ic"
  ],
  [
   "p",
   "ose"
  ],
  [
   "b",
   "y"
  ],
  [
   "UC",
   "ESTER"
  ],
  [
   "LO",
   "UCESTER"
  ],
  [
   " we",
   "ep"
  ],
  [
   " g",
   "row"
  ],
  [
   " en",
   "ter"
  ],
  [
   " H",
   "enry"
  ],
  [
   " ",
   "ent"
  ],
  [
   " ",
   "Thou"
  ],
  [
   "d",
   "er"
  ],
  [
   " with",
   "out"
  ],
  [
   " I",
   "t"
  ],
  [
   " Eng",
   "land"
  ],
  [
   "o",
   "p"
  ],
  [
   "ain",
   "s"
  ],
  [
   " l",
   "ay"
  ],
  [
   " de",
   "vil"
  ],
  [
   " T",
   "ro"
  ],
  [
   " str",
   "ong"
  ],
  [
   " j",
   "oy"
  ],
  [
   " h",
   "orse"
  ],
  [
   " Ant",
   "ony"
  ],
  [
   "OR",
   "T"
  ],
  [
   " sa",
   "w"
  ],
  [
   "z",
   "e"
  ],
  [
   "n",
   "ed"
  ],
  [
   " un",
   "c"
  ],
  [
   " s",
   "orrow"
  ],
  [
   " s",
   "omet"
  ],
  [
   " d",
   "an"
  ],
  [
   " arm",
   "s"
  ],
  [
   "c",
   "ed"
  ],
  [
   " your",
   "self"
  ],
  [
   " me",
   "ans"
  ],
  [
   " l",
   "ess"
  ],
  [
   " H",
   "ow"
  ],
  [
   "one",
   "y"
  ],
  [
   "l",
   "ou"
  ],
  [
   "i",
   "ers"
  ],
  [
   "ef",
   "t"
  ],
  [
   "G",
   "LOUCESTER"
  ],
  [
   " comm",
   "and"
  ],
  [
   " bea",
   "uty"
  ],
  [
   "at",
   "s"
  ],
  [
   "TH",
   "ER"
  ],
  [
   "L",
   "ES"
  ],
  [
   " lo",
   "st"
  ],
  [
   " ",
   "Th"
  ],
  [
   "w",
   "ick"
  ],
  [
   "U",
   "n"
  ],
  [
   " that",
   "’s"
  ],
  [
   " des",
   "ire"
  ],
  [
   "lou",
   "cester"
  ],
  [
   "k",
   "en"
  ],
  [
   "a",
   "v"
  ],
  [
   " c",
   "r"
  ],
  [
   "m",
   "er"
  ],
  [
   " of",
   "t"
  ],
  [
   "P",
   "E"
  ],
  [
   " st",
   "ra"
  ],
  [
   " G",
   "race"
  ],
  [
   "ren",
   "ce"
  ],
  [
   "A",
   "t"
  ],
  [
   " w",
   "ant"
  ],
  [
   " l",
   "and"
  ],
  [
   "d",
   "d"
  ],
  [
   "ar",
   "wick"
  ],
  [
   "C",
   "OR"
  ],
  [
   " se",
   "nd"
  ],
  [
   " on",
   "ly"
  ],
  [
   "e",
   "ed"
  ],
  [
   "U",
   "M"
  ],
  [
   "D",
   "id"
  ],
  [
   "AN",
   "IO"
  ],
  [
   "li",
   "ke"
  ],
  [
   "E",
   "ven"
  ],
  [
   " to",
   "gether"
  ],
  [
   " fort",
   "une"
  ],
  [
   " R",
   "I"
  ],
  [
   " C",
   "la"
  ],
  [
   "ro",
   "ss"
  ],
  [
   "S",
   "h"
  ],
  [
   " se",
   "a"
  ],
  [
   " s",
   "ing"
  ],
  [
   " pr",
   "ince"
  ],
  [
   "j",
   "esty"
  ],
  [
   "a",
   "ce"
  ],
  [
   " stran",
   "ge"
  ],
  [
   " l",
   "eft"
  ],
  [
   " har",
   "d"
  ],
  [
   " f",
   "oul"
  ],
  [
   " count",
   "ry"
  ],
  [
   "ud",
   "ge"
  ],
  [
   "p",
   "h"
  ],
  [
   "ENT",
   "LE"
  ],
  [
   " w",
   "ish"
  ],
  [
   " s",
   "ight"
  ],
  [
   " ret",
   "urn"
  ],
  [
   " r",
   "un"
  ],
  [
   " Pr",
   "ince"
  ],
  [
   " I",
   "s"
  ],
  [
   "is",
   "hed"
  ],
  [
   "L",
   "AND"
  ],
  [
   " s",
   "la"
  ],
  [
   " re",
   "ad"
  ],
  [
   "al",
   "th"
  ],
  [
   " thought",
   "s"
  ],
  [
   " g",
   "et"
  ],
  [
   " c",
   "ry"
  ],
  [
   " bl",
   "ess"
  ],
  [
   " RI",
   "CHARD"
  ],
  [
   " D",
   "o"
  ],
  [
   "v",
   "’d"
  ],
  [
   "g",
   "s"
  ],
  [
   " t",
   "alk"
  ],
  [
   " spir",
   "it"
  ],
  [
   "u",
   "res"
  ],
  [
   " sp",
   "o"
  ],
  [
   " R",
   "ichard"
  ],
  [
   "o",
   "ple"
  ],
  [
   "W",
   "ould"
  ],
  [
   " p",
   "ity"
  ],
  [
   "ert",
   "ain"
  ],
  [
   "Y",
   "OR"
  ],
  [
   " f",
   "ree"
  ],
  [
   " C",
   "ass"
  ],
  [
   "re",
   "st"
  ],
  [
   "G",
   "ive"
  ],
  [
   " your",
   "s"
  ],
  [
   " b",
   "orn"
  ],
  [
   "n",
   "ow"
  ],
  [
   "m",
   "ed"
  ],
  [
   "au",
   "se"
  ],
  [
   "a",
   "ff"
  ],
  [
   "Y",
   "R"
  ],
  [
   "D",
   "ER"
  ],
  [
   " w",
   "om"
  ],
  [
   "p",
   "eak"
  ],
  [
   "ot",
   "t"
  ],
  [
   "M",
   "IO"
  ],
  [
   " rem",
   "em"
  ],
  [
   " pr",
   "ison"
  ],
  [
   " g",
   "ener"
  ],
  [
   " f",
   "ly"
  ],
  [
   " ex",
   "ce"
  ],
  [
   "f",
   "ord"
  ],
  [
   "e",
   "red"
  ],
  [
   " t",
   "em"
  ],
  [
   " sw",
   "ear"
  ],
  [
   " s",
   "ister"
  ],
  [
   " G",
   "loucester"
  ],
  [
   "P",
   "RO"
  ],
  [
   "M",
   "EN"
  ],
  [
   "M",
   "A"
  ],
  [
   " to",
   "ld"
  ],
  [
   "it",
   "or"
  ],
  [
   "D",
   "IO"
  ],
  [
   " v",
   "o"
  ],
  [
   " p",
   "ardon"
  ],
  [
   " d",
   "en"
  ],
  [
   "gain",
   "st"
  ],
  [
   "d",
   "om"
  ],
  [
   "AG",
   "E"
  ],
  [
   " w",
   "o"
  ],
  [
   " m",
   "ur"
  ],
  [
   " at",
   "tend"
  ],
  [
   " al",
   "one"
  ],
  [
   " W",
   "arwick"
  ],
  [
   " N",
   "ow"
  ],
  [
   "ot",
   "e"
  ],
  [
   "ond",
   "er"
  ],
  [
   " s",
   "ick"
  ],
  [
   " pr",
   "oud"
  ],
  [
   " it",
   "self"
  ],
  [
   " breat",
   "h"
  ],
  [
   " v",
   "i"
  ],
  [
   " ne",
   "ed"
  ],
  [
   " de",
   "l"
  ],
  [
   "ou",
   "th"
  ],
  [
   "Who",
   "se"
  ],
  [
   "ENTLE",
   "MAN"
  ],
  [
   " de",
   "f"
  ],
  [
   " A",
   "r"
  ],
  [
   "e",
   "ver"
  ],
  [
   "O",
   "n"
  ],
  [
   " ro",
   "yal"
  ],
  [
   " p",
   "rom"
  ],
  [
   " W",
   "e"
  ],
  [
   "H",
   "er"
  ],
  [
   " see",
   "k"
  ],
  [
   " s",
   "ound"
  ],
  [
   " ha",
   "lf"
  ],
  [
   " say",
   "s"
  ],
  [
   "\n\n",
   "\n\n\n"
  ],
  [
   " re",
   "ven"
  ],
  [
   "OL",
   "I"
  ],
  [
   " su",
   "pp"
  ],
  [
   "M",
   "ore"
  ],
  [
   "C",
   "LE"
  ],
  [
   " g",
   "ave"
  ],
  [
   "at",
   "er"
  ],
  [
   " to",
   "m"
  ],
  [
   " s",
   "il"
  ],
  [
   "ro",
   "ke"
  ],
  [
   "it",
   "he"
  ],
  [
   "M",
   "AC"
  ],
  [
   " w",
   "ilt"
  ],
  [
   " c",
   "ra"
  ],
  [
   "re",
   "w"
  ],
  [
   "p",
   "os"
  ],
  [
   "c",
   "ess"
  ],
  [
   "T",
   "IMON"
  ],
  [
   "IN",
   "D"
  ],
  [
   " s",
   "ad"
  ],
  [
   " f",
   "ound"
  ],
  [
   " e",
   "ach"
  ],
  [
   "        ",
   "   "
  ],
  [
   " o",
   "ath"
  ],
  [
   " li",
   "es"
  ],
  [
   " dou",
   "bt"
  ],
  [
   " com",
   "fort"
  ],
  [
   "ut",
   "us"
  ],
  [
   "m",
   "ost"
  ],
  [
   " pe",
   "ople"
  ],
  [
   " look",
   "s"
  ],
  [
   " fa",
   "re"
  ],
  [
   " dra",
   "w"
  ],
  [
   "w",
   "ith"
  ],
  [
   "ren",
   "ch"
  ],
  [
   "c",
   "han"
  ],
  [
   " we",
   "ar"
  ],
  [
   " serv",
   "ice"
  ],
  [
   " l",
   "ate"
  ],
  [
   " father",
   "’s"
  ],
  [
   " ",
   "‘"
  ],
  [
   "st",
   "er"
  ],
  [
   "IN",
   "IUS"
  ],
  [
   "IN",
   "A"
  ],
  [
   "D",
   "Y"
  ],
  [
   " wor",
   "k"
  ],
  [
   " bus",
   "iness"
  ],
  [
   "OP",
   "AT"
  ],
  [
   "OPAT",
   "RA"
  ],
  [
   "D",
   "ES"
  ],
  [
   " W",
   "hy"
  ],
  [
   "b",
   "our"
  ],
  [
   "CLE",
   "OPATRA"
  ],
  [
   " b",
   "ir"
  ],
  [
   "x",
   "t"
  ],
  [
   "et",
   "er"
  ],
  [
   "YR",
   "AC"
  ],
  [
   "YRAC",
   "US"
  ],
  [
   "YRACUS",
   "E"
  ],
  [
   "CLO",
   "WN"
  ],
  [
   " w",
   "in"
  ],
  [
   " t",
   "end"
  ],
  [
   " s",
   "en"
  ],
  [
   " qu",
   "ick"
  ],
  [
   " in",
   "f"
  ],
  [
   " f",
   "ield"
  ],
  [
   " S",
   "YRACUSE"
  ],
  [
   " Ed",
   "ward"
  ],
  [
   "OL",
   "K"
  ],
  [
   "IL",
   "IA"
  ],
  [
   " s",
   "k"
  ],
  [
   " mar",
   "k"
  ],
  [
   " c",
   "old"
  ],
  [
   "u",
   "p"
  ],
  [
   "l",
   "s"
  ],
  [
   "T",
   "ES"
  ],
  [
   "ROSAL",
   "IND"
  ],
  [
   " le",
   "ad"
  ],
  [
   " a",
   "ge"
  ],
  [
   " S",
   "o"
  ],
  [
   "un",
   "es"
  ],
  [
   "YOR",
   "K"
  ],
  [
   "L",
   "ook"
  ],
  [
   "EL",
   "IA"
  ],
  [
   "ANT",
   "I"
  ],
  [
   " d",
   "are"
  ],
  [
   " blood",
   "y"
  ],
  [
   "o",
   "or"
  ],
  [
   "T",
   "ill"
  ],
  [
   "GAR",
   "ET"
  ],
  [
   " su",
   "ff"
  ],
  [
   " kn",
   "ight"
  ],
  [
   " ",
   "That"
  ],
  [
   "i",
   "al"
  ],
  [
   " ’t",
   "w"
  ],
  [
   " ’",
   "em"
  ],
  [
   " t",
   "imes"
  ],
  [
   " pur",
   "pose"
  ],
  [
   "v",
   "ent"
  ],
  [
   "l",
   "ish"
  ],
  [
   "an",
   "g"
  ],
  [
   "T",
   "A"
  ],
  [
   "IC",
   "E"
  ],
  [
   "CH",
   "IO"
  ],
  [
   " ne",
   "’er"
  ],
  [
   " l",
   "ear"
  ],
  [
   "ithe",
   "e"
  ],
  [
   "IM",
   "O"
  ],
  [
   ",",
   "”"
  ],
  [
   " so",
   "on"
  ],
  [
   " m",
   "et"
  ],
  [
   " c",
   "ho"
  ],
  [
   " He",
   "re"
  ],
  [
   "l",
   "ing"
  ],
  [
   "W",
   "as"
  ],
  [
   "Thou",
   "gh"
  ],
  [
   "J",
   "A"
  ],
  [
   "G",
   "ER"
  ],
  [
   " ",
   "[_"
  ],
  [
   "ic",
   "es"
  ],
  [
   " lo",
   "se"
  ],
  [
   " in",
   "t"
  ],
  [
   " bet",
   "ween"
  ],
  [
   "as",
   "ure"
  ],
  [
   "L",
   "ike"
  ],
  [
   " s",
   "erve"
  ],
  [
   " lo",
   "ves"
  ],
  [
   " gener",
   "al"
  ],
  [
   "re",
   "m"
  ],
  [
   "ol",
   "k"
  ],
  [
   "ink",
   "s"
  ],
  [
   "V",
   "IA"
  ],
  [
   " w",
   "a"
  ],
  [
   " know",
   "s"
  ],
  [
   " f",
   "ur"
  ],
  [
   "v",
   "our"
  ],
  [
   "e",
   "c"
  ],
  [
   "Y",
   "es"
  ],
  [
   " y",
   "ield"
  ],
  [
   " worth",
   "y"
  ],
  [
   " m",
   "usic"
  ],
  [
   " c",
   "ond"
  ],
  [
   "re",
   "r"
  ],
  [
   "P",
   "ER"
  ],
  [
   " S",
   "t"
  ],
  [
   " dan",
   "ger"
  ],
  [
   " c",
   "ar"
  ],
  [
   "u",
   "b"
  ],
  [
   "LE",
   "AR"
  ],
  [
   " c",
   "ertain"
  ],
  [
   " bes",
   "eech"
  ],
  [
   " as",
   "k"
  ],
  [
   "M",
   "ESS"
  ],
  [
   "AN",
   "US"
  ],
  [
   " de",
   "ep"
  ],
  [
   " comp",
   "any"
  ],
  [
   " br",
   "ought"
  ],
  [
   " a",
   "w"
  ],
  [
   "c",
   "ause"
  ],
  [
   "W",
   "ICK"
  ],
  [
   " t",
   "er"
  ],
  [
   " s",
   "in"
  ],
  [
   " p",
   "al"
  ],
  [
   " f",
   "ore"
  ],
  [
   " d",
   "am"
  ],
  [
   " comm",
   "on"
  ],
  [
   "p",
   "r"
  ],
  [
   "oo",
   "se"
  ],
  [
   "ie",
   "f"
  ],
  [
   "S",
   "ome"
  ],
  [
   "AR",
   "WICK"
  ],
  [
   " li",
   "ves"
  ],
  [
   " cont",
   "ent"
  ],
  [
   " a",
   "ff"
  ],
  [
   " N",
   "or"
  ],
  [
   "ak",
   "ing"
  ],
  [
   "W",
   "ARD"
  ],
  [
   "U",
   "L"
  ],
  [
   "EN",
   "GER"
  ],
  [
   " w",
   "ise"
  ],
  [
   " su",
   "m"
  ],
  [
   " dre",
   "am"
  ],
  [
   " day",
   "s"
  ],
  [
   " char",
   "ge"
  ],
  [
   " a",
   "ir"
  ],
  [
   " N",
   "o"
  ],
  [
   "ud",
   "e"
  ],
  [
   "p",
   "art"
  ],
  [
   "hi",
   "l"
  ],
  [
   "IZ",
   "EN"
  ],
  [
   "IT",
   "IZEN"
  ],
  [
   "D",
   "ON"
  ],
  [
   "C",
   "an"
  ],
  [
   " y",
   "ears"
  ],
  [
   " w",
   "hile"
  ],
  [
   " b",
   "a"
  ],
  [
   "th",
   "ing"
  ],
  [
   "k",
   "es"
  ],
  [
   "ess",
   "en"
  ],
  [
   "IR",
   "D"
  ],
  [
   " thy",
   "self"
  ],
  [
   " s",
   "it"
  ],
  [
   " fo",
   "ot"
  ],
  [
   " b",
   "ar"
  ],
  [
   "if",
   "t"
  ],
  [
   "ent",
   "y"
  ],
  [
   "M",
   "ost"
  ],
  [
   " se",
   "lf"
  ],
  [
   " d",
   "ist"
  ],
  [
   " c",
   "ut"
  ],
  [
   " G",
   "o"
  ],
  [
   "i",
   "et"
  ],
  [
   "We",
   "re"
  ],
  [
   "W",
   "ARWICK"
  ],
  [
   "PH",
   "OL"
  ],
  [
   "PHOL",
   "US"
  ],
  [
   "ANTI",
   "PHOLUS"
  ],
  [
   " tr",
   "ust"
  ],
  [
   " m",
   "oney"
  ],
  [
   " l",
   "ad"
  ],
  [
   " gra",
   "cious"
  ],
  [
   " gi",
   "ven"
  ],
  [
   " Br",
   "utus"
  ],
  [
   " ",
   "Enter"
  ],
  [
   "la",
   "im"
  ],
  [
   "i",
   "ves"
  ],
  [
   "fe",
   "ction"
  ],
  [
   "TH",
   "IRD"
  ],
  [
   "P",
   "ET"
  ],
  [
   "H",
   "OST"
  ],
  [
   "G",
   "od"
  ],
  [
   "EL",
   "L"
  ],
  [
   " virt",
   "ue"
  ],
  [
   " unc",
   "le"
  ],
  [
   "ve",
   "d"
  ],
  [
   "im",
   "on"
  ],
  [
   " pra",
   "ise"
  ],
  [
   " know",
   "n"
  ],
  [
   " The",
   "n"
  ],
  [
   "ha",
   "l"
  ],
  [
   "H",
   "ER"
  ],
  [
   " for",
   "g"
  ],
  [
   " F",
   "rench"
  ],
  [
   " A",
   "l"
  ],
  [
   "est",
   "ion"
  ],
  [
   "The",
   "se"
  ],
  [
   " s",
   "ur"
  ],
  [
   " f",
   "it"
  ],
  [
   "are",
   "well"
  ],
  [
   " m",
   "in"
  ],
  [
   " fur",
   "ther"
  ],
  [
   " S",
   "erv"
  ],
  [
   " G",
   "ENTLEMAN"
  ],
  [
   "u",
   "ght"
  ],
  [
   "ow",
   "ard"
  ],
  [
   "ll",
   "y"
  ],
  [
   "V",
   "AL"
  ],
  [
   "M",
   "ay"
  ],
  [
   "EM",
   "ILIA"
  ],
  [
   " wom",
   "en"
  ],
  [
   " so",
   "vere"
  ],
  [
   " pleas",
   "ure"
  ],
  [
   " happ",
   "y"
  ],
  [
   " gra",
   "ve"
  ],
  [
   " bel",
   "ieve"
  ],
  [
   " b",
   "old"
  ],
  [
   "i",
   "ble"
  ],
  [
   " re",
   "c"
  ],
  [
   " p",
   "ar"
  ],
  [
   " other",
   "s"
  ],
  [
   " O",
   "r"
  ],
  [
   "ie",
   "ce"
  ],
  [
   "g",
   "ar"
  ],
  [
   "er",
   "y"
  ],
  [
   "ERV",
   "ANT"
  ],
  [
   "AR",
   "US"
  ],
  [
   "A",
   "S"
  ],
  [
   " s",
   "ake"
  ],
  [
   " m",
   "orn"
  ],
  [
   "s",
   "o"
  ],
  [
   "ON",
   "A"
  ],
  [
   "AL",
   "L"
  ],
  [
   " p",
   "ay"
  ],
  [
   "ot",
   "s"
  ],
  [
   "c",
   "a"
  ],
  [
   " t",
   "en"
  ],
  [
   " j",
   "udge"
  ],
  [
   " he",
   "ll"
  ],
  [
   " bl",
   "ack"
  ],
  [
   " b",
   "ound"
  ],
  [
   " a",
   "ct"
  ],
  [
   " S",
   "he"
  ],
  [
   "ri",
   "es"
  ],
  [
   "AC",
   "T"
  ],
  [
   " c",
   "or"
  ],
  [
   " ",
   "’Tis"
  ],
  [
   "i",
   "p"
  ],
  [
   "T",
   "IT"
  ],
  [
   " tr",
   "u"
  ],
  [
   " s",
   "ide"
  ],
  [
   " go",
   "es"
  ],
  [
   " P",
   "er"
  ],
  [
   "’",
   "en"
  ],
  [
   "oo",
   "f"
  ],
  [
   "in",
   "ed"
  ],
  [
   "i",
   "ant"
  ],
  [
   "MESS",
   "ENGER"
  ],
  [
   "LA",
   "U"
  ],
  [
   " s",
   "ign"
  ],
  [
   " a",
   "c"
  ],
  [
   " P",
   "age"
  ],
  [
   "um",
   "ber"
  ],
  [
   "n",
   "o"
  ],
  [
   "S",
   "w"
  ],
  [
   "C",
   "L"
  ],
  [
   " there",
   "’s"
  ],
  [
   " po",
   "ss"
  ],
  [
   " gr",
   "ound"
  ],
  [
   " fa",
   "ult"
  ],
  [
   " d",
   "iv"
  ],
  [
   " II",
   "I"
  ],
  [
   " C",
   "ITIZEN"
  ],
  [
   "nt",
   "o"
  ],
  [
   "b",
   "s"
  ],
  [
   "DES",
   "DEM"
  ],
  [
   "DESDEM",
   "ONA"
  ],
  [
   " war",
   "rant"
  ],
  [
   " m",
   "ock"
  ],
  [
   " M",
   "a"
  ],
  [
   "MEN",
   "EN"
  ],
  [
   "MENEN",
   "IUS"
  ],
  [
   "C",
   "LAU"
  ],
  [
   " in",
   "c"
  ],
  [
   " he",
   "’s"
  ],
  [
   " W",
   "here"
  ],
  [
   "s",
   "hip"
  ],
  [
   "i",
   "z"
  ],
  [
   "There",
   "fore"
  ],
  [
   "S",
   "ay"
  ],
  [
   "RO",
   "MIO"
  ],
  [
   "P",
   "AND"
  ],
  [
   "IS",
   "A"
  ],
  [
   "D",
   "ROMIO"
  ],
  [
   " son",
   "s"
  ],
  [
   " pers",
   "on"
  ],
  [
   " c",
   "ol"
  ],
  [
   " bra",
   "ve"
  ],
  [
   " b",
   "ase"
  ],
  [
   "ce",
   "ed"
  ],
  [
   " pati",
   "ence"
  ],
  [
   "ad",
   "am"
  ],
  [
   "O",
   "WN"
  ],
  [
   "CLAU",
   "DIO"
  ],
  [
   " tom",
   "orrow"
  ],
  [
   " them",
   "selves"
  ],
  [
   " sh",
   "ort"
  ],
  [
   " rep",
   "ort"
  ],
  [
   " mer",
   "cy"
  ],
  [
   " mar",
   "ry"
  ],
  [
   " g",
   "all"
  ],
  [
   " dr",
   "ink"
  ],
  [
   " C",
   "l"
  ],
  [
   "ort",
   "al"
  ],
  [
   "ment",
   "s"
  ],
  [
   "S",
   "U"
  ],
  [
   " we",
   "’ll"
  ],
  [
   " w",
   "is"
  ],
  [
   " v",
   "is"
  ],
  [
   " p",
   "ast"
  ],
  [
   "on",
   "ight"
  ],
  [
   "all",
   "y"
  ],
  [
   "V",
   "OL"
  ],
  [
   "OWN",
   "E"
  ],
  [
   "D",
   "ICK"
  ],
  [
   "BER",
   "OWNE"
  ],
  [
   " e",
   "at"
  ],
  [
   "v",
   "o"
  ],
  [
   "us",
   "h"
  ],
  [
   "i",
   "or"
  ],
  [
   "ge",
   "l"
  ],
  [
   "e",
   "k"
  ],
  [
   "RU",
   "CHIO"
  ],
  [
   "PET",
   "RUCHIO"
  ],
  [
   "ID",
   "A"
  ],
  [
   " tend",
   "er"
  ],
  [
   " ri",
   "ch"
  ],
  [
   " re",
   "d"
  ],
  [
   " pro",
   "f"
  ],
  [
   " o",
   "pen"
  ],
  [
   " mer",
   "ry"
  ],
  [
   " hea",
   "vy"
  ],
  [
   " h",
   "ot"
  ],
  [
   " ear",
   "s"
  ],
  [
   "        ",
   "           "
  ],
  [
   "ow",
   "ers"
  ],
  [
   "C",
   "om"
  ],
  [
   " su",
   "it"
  ],
  [
   " be",
   "hold"
  ],
  [
   "e",
   "al"
  ],
  [
   "H",
   "ad"
  ],
  [
   " w",
   "ater"
  ],
  [
   " heart",
   "s"
  ],
  [
   " hat",
   "e"
  ],
  [
   " g",
   "ar"
  ],
  [
   " enem",
   "y"
  ],
  [
   " W",
   "hen"
  ],
  [
   " M",
   "AR"
  ],
  [
   " ",
   "est"
  ],
  [
   "at",
   "is"
  ],
  [
   "at",
   "ed"
  ],
  [
   "Al",
   "as"
  ],
  [
   " w",
   "oo"
  ],
  [
   " w",
   "he"
  ],
  [
   " j",
   "o"
  ],
  [
   " des",
   "p"
  ],
  [
   " chan",
   "ge"
  ],
  [
   "s",
   "ue"
  ],
  [
   "for",
   "m"
  ],
  [
   "as",
   "k"
  ],
  [
   "VAL",
   "ENT"
  ],
  [
   "VALENT",
   "INE"
  ],
  [
   "O",
   "ne"
  ],
  [
   " fa",
   "st"
  ],
  [
   " de",
   "ed"
  ],
  [
   " W",
   "ho"
  ],
  [
   "i",
   "res"
  ],
  [
   "T",
   "ake"
  ],
  [
   "RESS",
   "IDA"
  ],
  [
   "PAND",
   "ARUS"
  ],
  [
   "BEL",
   "LA"
  ],
  [
   " we",
   "ak"
  ],
  [
   " w",
   "ret"
  ],
  [
   " sub",
   "ject"
  ],
  [
   " fare",
   "well"
  ],
  [
   " f",
   "ea"
  ],
  [
   " em",
   "b"
  ],
  [
   " at",
   "t"
  ],
  [
   " M",
   "istress"
  ],
  [
   "g",
   "es"
  ],
  [
   "OB",
   "Y"
  ],
  [
   "C",
   "RESSIDA"
  ],
  [
   " vo",
   "ice"
  ],
  [
   " sovere",
   "ign"
  ],
  [
   " re",
   "qu"
  ],
  [
   " kn",
   "ew"
  ],
  [
   " b",
   "urn"
  ],
  [
   " T",
   "OBY"
  ],
  [
   "y",
   "ou"
  ],
  [
   "it",
   "es"
  ],
  [
   "f",
   "ter"
  ],
  [
   "b",
   "ly"
  ],
  [
   "T",
   "OR"
  ],
  [
   " wor",
   "se"
  ],
  [
   " li",
   "ps"
  ],
  [
   " cour",
   "se"
  ],
  [
   " b",
   "att"
  ],
  [
   "it",
   "ies"
  ],
  [
   " tra",
   "itor"
  ],
  [
   " ent",
   "reat"
  ],
  [
   " be",
   "at"
  ],
  [
   " C",
   "h"
  ],
  [
   "st",
   "and"
  ],
  [
   "es",
   "h"
  ],
  [
   "Th",
   "us"
  ],
  [
   "SH",
   "AL"
  ],
  [
   "IOL",
   "ANUS"
  ],
  [
   " ne",
   "xt"
  ],
  [
   " kn",
   "e"
  ],
  [
   " ha",
   "ir"
  ],
  [
   " f",
   "our"
  ],
  [
   " de",
   "v"
  ],
  [
   " conf",
   "ess"
  ],
  [
   " Eng",
   "lish"
  ],
  [
   "eth",
   "inks"
  ],
  [
   "al",
   "s"
  ],
  [
   "ad",
   "s"
  ],
  [
   "T",
   "EUS"
  ],
  [
   "PRO",
   "TEUS"
  ],
  [
   " th",
   "ri"
  ]
 ]
}
